<unk>	0
<s>	0
</s>	0
<pad>	0
<0x00>	0
<0x01>	0
<0x02>	0
<0x03>	0
<0x04>	0
<0x05>	0
<0x06>	0
<0x07>	0
<0x08>	0
<0x09>	0
<0x0A>	0
<0x0B>	0
<0x0C>	0
<0x0D>	0
<0x0E>	0
<0x0F>	0
<0x10>	0
<0x11>	0
<0x12>	0
<0x13>	0
<0x14>	0
<0x15>	0
<0x16>	0
<0x17>	0
<0x18>	0
<0x19>	0
<0x1A>	0
<0x1B>	0
<0x1C>	0
<0x1D>	0
<0x1E>	0
<0x1F>	0
<0x20>	0
<0x21>	0
<0x22>	0
<0x23>	0
<0x24>	0
<0x25>	0
<0x26>	0
<0x27>	0
<0x28>	0
<0x29>	0
<0x2A>	0
<0x2B>	0
<0x2C>	0
<0x2D>	0
<0x2E>	0
<0x2F>	0
<0x30>	0
<0x31>	0
<0x32>	0
<0x33>	0
<0x34>	0
<0x35>	0
<0x36>	0
<0x37>	0
<0x38>	0
<0x39>	0
<0x3A>	0
<0x3B>	0
<0x3C>	0
<0x3D>	0
<0x3E>	0
<0x3F>	0
<0x40>	0
<0x41>	0
<0x42>	0
<0x43>	0
<0x44>	0
<0x45>	0
<0x46>	0
<0x47>	0
<0x48>	0
<0x49>	0
<0x4A>	0
<0x4B>	0
<0x4C>	0
<0x4D>	0
<0x4E>	0
<0x4F>	0
<0x50>	0
<0x51>	0
<0x52>	0
<0x53>	0
<0x54>	0
<0x55>	0
<0x56>	0
<0x57>	0
<0x58>	0
<0x59>	0
<0x5A>	0
<0x5B>	0
<0x5C>	0
<0x5D>	0
<0x5E>	0
<0x5F>	0
<0x60>	0
<0x61>	0
<0x62>	0
<0x63>	0
<0x64>	0
<0x65>	0
<0x66>	0
<0x67>	0
<0x68>	0
<0x69>	0
<0x6A>	0
<0x6B>	0
<0x6C>	0
<0x6D>	0
<0x6E>	0
<0x6F>	0
<0x70>	0
<0x71>	0
<0x72>	0
<0x73>	0
<0x74>	0
<0x75>	0
<0x76>	0
<0x77>	0
<0x78>	0
<0x79>	0
<0x7A>	0
<0x7B>	0
<0x7C>	0
<0x7D>	0
<0x7E>	0
<0x7F>	0
<0x80>	0
<0x81>	0
<0x82>	0
<0x83>	0
<0x84>	0
<0x85>	0
<0x86>	0
<0x87>	0
<0x88>	0
<0x89>	0
<0x8A>	0
<0x8B>	0
<0x8C>	0
<0x8D>	0
<0x8E>	0
<0x8F>	0
<0x90>	0
<0x91>	0
<0x92>	0
<0x93>	0
<0x94>	0
<0x95>	0
<0x96>	0
<0x97>	0
<0x98>	0
<0x99>	0
<0x9A>	0
<0x9B>	0
<0x9C>	0
<0x9D>	0
<0x9E>	0
<0x9F>	0
<0xA0>	0
<0xA1>	0
<0xA2>	0
<0xA3>	0
<0xA4>	0
<0xA5>	0
<0xA6>	0
<0xA7>	0
<0xA8>	0
<0xA9>	0
<0xAA>	0
<0xAB>	0
<0xAC>	0
<0xAD>	0
<0xAE>	0
<0xAF>	0
<0xB0>	0
<0xB1>	0
<0xB2>	0
<0xB3>	0
<0xB4>	0
<0xB5>	0
<0xB6>	0
<0xB7>	0
<0xB8>	0
<0xB9>	0
<0xBA>	0
<0xBB>	0
<0xBC>	0
<0xBD>	0
<0xBE>	0
<0xBF>	0
<0xC0>	0
<0xC1>	0
<0xC2>	0
<0xC3>	0
<0xC4>	0
<0xC5>	0
<0xC6>	0
<0xC7>	0
<0xC8>	0
<0xC9>	0
<0xCA>	0
<0xCB>	0
<0xCC>	0
<0xCD>	0
<0xCE>	0
<0xCF>	0
<0xD0>	0
<0xD1>	0
<0xD2>	0
<0xD3>	0
<0xD4>	0
<0xD5>	0
<0xD6>	0
<0xD7>	0
<0xD8>	0
<0xD9>	0
<0xDA>	0
<0xDB>	0
<0xDC>	0
<0xDD>	0
<0xDE>	0
<0xDF>	0
<0xE0>	0
<0xE1>	0
<0xE2>	0
<0xE3>	0
<0xE4>	0
<0xE5>	0
<0xE6>	0
<0xE7>	0
<0xE8>	0
<0xE9>	0
<0xEA>	0
<0xEB>	0
<0xEC>	0
<0xED>	0
<0xEE>	0
<0xEF>	0
<0xF0>	0
<0xF1>	0
<0xF2>	0
<0xF3>	0
<0xF4>	0
<0xF5>	0
<0xF6>	0
<0xF7>	0
<0xF8>	0
<0xF9>	0
<0xFA>	0
<0xFB>	0
<0xFC>	0
<0xFD>	0
<0xFE>	0
<0xFF>	0
▁t	-0
he	-1
in	-2
ou	-3
▁a	-4
▁I	-5
▁s	-6
▁m	-7
▁w	-8
▁the	-9
on	-10
it	-11
▁y	-12
▁b	-13
ha	-14
re	-15
▁you	-16
▁f	-17
▁l	-18
▁d	-19
▁c	-20
▁g	-21
ll	-22
nd	-23
ve	-24
▁n	-25
ow	-26
is	-27
an	-28
▁to	-29
hat	-30
ke	-31
▁p	-32
or	-33
ea	-34
▁(	-35
ot	-36
me	-37
▁me	-38
▁it	-39
ig	-40
st	-41
ck	-42
ee	-43
er	-44
▁o	-45
▁my	-46
ay	-47
et	-48
▁h	-49
se	-50
▁in	-51
▁th	-52
ing	-53
▁on	-54
▁T	-55
▁u	-56
▁that	-57
▁li	-58
▁A	-59
▁and	-60
as	-61
at	-62
▁S	-63
le	-64
oo	-65
ut	-66
▁he	-67
▁k	-68
▁of	-69
ar	-70
ver	-71
ld	-72
▁W	-73
▁e	-74
ht	-75
eah	-76
id	-77
ed	-78
▁r	-79
▁Y	-80
es	-81
out	-82
▁'	-83
▁st	-84
▁B	-85
▁be	-86
▁like	-87
▁up	-88
ome	-89
ch	-90
ight	-91
▁sh	-92
▁kn	-93
▁for	-94
ith	-95
ro	-96
ust	-97
▁your	-98
al	-99
▁ha	-100
▁don	-101
▁j	-102
igg	-103
ad	-104
▁re	-105
▁M	-106
▁with	-107
▁is	-108
▁know	-109
ce	-110
▁we	-111
all	-112
nt	-113
▁H	-114
uck	-115
▁got	-116
▁And	-117
▁this	-118
ake	-119
▁get	-120
ill	-121
▁nigg	-122
ack	-123
▁G	-124
▁L	-125
hen	-126
▁just	-127
na	-128
▁can	-129
▁You	-130
▁do	-131
▁D	-132
ra	-133
▁go	-134
▁wan	-135
▁all	-136
▁O	-137
▁C	-138
ir	-139
ic	-140
au	-141
▁out	-142
am	-143
▁they	-144
op	-145
▁lo	-146
▁N	-147
▁no	-148
▁was	-149
ly	-150
if	-151
▁yeah	-152
ion	-153
od	-154
ould	-155
▁wh	-156
▁what	-157
▁tr	-158
▁F	-159
▁ne	-160
en	-161
own	-162
▁The	-163
one	-164
ie	-165
ore	-166
ime	-167
▁ain	-168
oug	-169
ell	-170
▁not	-171
▁shit	-172
▁so	-173
ur	-174
her	-175
▁at	-176
▁some	-177
▁)	-178
▁fuck	-179
un	-180
ame	-181
▁when	-182
ss	-183
▁P	-184
om	-185
th	-186
ause	-187
eel	-188
▁see	-189
kin	-190
pp	-191
▁but	-192
im	-193
em	-194
▁feel	-195
▁back	-196
▁ever	-197
rom	-198
▁nigga	-199
ct	-200
ive	-201
ide	-202
ind	-203
il	-204
▁But	-205
fe	-206
▁love	-207
▁"	-208
▁bit	-209
▁pl	-210
bout	-211
▁R	-212
▁now	-213
▁say	-214
ab	-215
eed	-216
▁Yeah	-217
oh	-218
um	-219
▁wor	-220
▁time	-221
ter	-222
▁al	-223
ear	-224
ough	-225
▁she	-226
ain	-227
ah	-228
art	-229
▁an	-230
een	-231
▁from	-232
▁down	-233
ick	-234
▁niggas	-235
▁if	-236
▁as	-237
ink	-238
▁never	-239
▁one	-240
▁let	-241
han	-242
▁want	-243
ge	-244
▁wanna	-245
▁J	-246
ook	-247
ound	-248
▁man	-249
ate	-250
▁gon	-251
us	-252
▁her	-253
▁bl	-254
▁make	-255
▁E	-256
ist	-257
▁off	-258
▁need	-259
ong	-260
yy	-261
ood	-262
ast	-263
',	-264
▁Th	-265
ta	-266
▁sa	-267
▁cl	-268
ody	-269
▁way	-270
ip	-271
▁every	-272
▁been	-273
▁who	-274
▁too	-275
ep	-276
▁how	-277
▁It	-278
ess	-279
▁bitch	-280
other	-281
▁sp	-282
and	-283
way	-284
▁ho	-285
here	-286
ry	-287
ven	-288
▁We	-289
▁right	-290
Yeah	-291
▁life	-292
▁K	-293
ers	-294
red	-295
▁That	-296
uh	-297
▁these	-298
qu	-299
▁think	-300
our	-301
Cause	-302
▁tell	-303
▁more	-304
▁take	-305
▁try	-306
▁could	-307
▁have	-308
ap	-309
▁So	-310
body	-311
▁thr	-312
lf	-313
sed	-314
ine	-315
▁My	-316
▁thing	-317
cause	-318
▁v	-319
▁fa	-320
▁had	-321
ally	-322
▁then	-323
▁or	-324
▁come	-325
▁sl	-326
ma	-327
ade	-328
▁oh	-329
▁God	-330
▁about	-331
eat	-332
▁con	-333
▁did	-334
▁ke	-335
ty	-336
el	-337
▁dr	-338
thing	-339
▁here	-340
▁us	-341
cke	-342
▁Wh	-343
irl	-344
ard	-345
▁call	-346
ure	-347
aby	-348
▁real	-349
▁Oh	-350
▁day	-351
▁tal	-352
▁They	-353
▁look	-354
▁still	-355
▁fl	-356
▁are	-357
▁ch	-358
▁If	-359
),	-360
▁ar	-361
▁gotta	-362
▁won	-363
▁He	-364
▁them	-365
▁co	-366
▁said	-367
che	-368
atch	-369
▁com	-370
▁pro	-371
ice	-372
▁pr	-373
▁This	-374
pe	-375
oy	-376
ull	-377
▁put	-378
▁through	-379
ies	-380
▁gr	-381
▁would	-382
ite	-383
eep	-384
▁fr	-385
urn	-386
▁What	-387
▁St	-388
▁keep	-389
▁than	-390
ous	-391
nds	-392
ag	-393
▁All	-394
▁se	-395
▁play	-396
ble	-397
▁bet	-398
ile	-399
▁Don	-400
est	-401
▁tw	-402
are	-403
▁le	-404
ol	-405
▁mo	-406
▁where	-407
▁his	-408
▁over	-409
ord	-410
▁girl	-411
▁br	-412
ul	-413
▁him	-414
▁am	-415
tin	-416
side	-417
▁night	-418
▁uh	-419
vin	-420
oney	-421
ought	-422
▁lea	-423
▁On	-424
▁good	-425
ity	-426
tle	-427
▁ro	-428
▁U	-429
▁give	-430
ation	-431
▁wr	-432
▁there	-433
▁even	-434
self	-435
▁She	-436
▁baby	-437
▁sw	-438
ree	-439
▁ayy	-440
▁sc	-441
ass	-442
▁only	-443
hin	-444
▁When	-445
ike	-446
▁fuckin	-447
▁really	-448
oah	-449
ant	-450
▁why	-451
ang	-452
▁hit	-453
▁cr	-454
▁Now	-455
▁mind	-456
ew	-457
▁made	-458
ent	-459
▁lit	-460
▁ag	-461
▁en	-462
uch	-463
▁ass	-464
igh	-465
▁should	-466
▁sm	-467
▁ex	-468
▁gu	-469
▁kill	-470
▁money	-471
mm	-472
der	-473
dy	-474
▁tryna	-475
oke	-476
▁run	-477
▁No	-478
fore	-479
be	-480
ose	-481
▁Fuck	-482
▁show	-483
▁qu	-484
▁hat	-485
▁new	-486
eop	-487
ways	-488
▁head	-489
▁better	-490
ue	-491
▁To	-492
eople	-493
amn	-494
ish	-495
▁by	-496
▁har	-497
ac	-498
▁de	-499
up	-500
▁dea	-501
ave	-502
kay	-503
▁much	-504
▁po	-505
▁around	-506
▁done	-507
ream	-508
ches	-509
to	-510
iss	-511
▁mean	-512
▁world	-513
▁pre	-514
▁things	-515
ub	-516
ipp	-517
very	-518
▁chan	-519
▁ya	-520
▁name	-521
▁again	-522
▁people	-523
▁cou	-524
▁might	-525
▁told	-526
ak	-527
Oh	-528
▁Just	-529
itch	-530
age	-531
▁Got	-532
ud	-533
▁gonna	-534
▁cha	-535
▁will	-536
ump	-537
▁Some	-538
ock	-539
▁turn	-540
ng	-541
reat	-542
▁bad	-543
iv	-544
ber	-545
ope	-546
▁live	-547
ied	-548
ucke	-549
ked	-550
▁How	-551
▁ooh	-552
orn	-553
▁any	-554
▁boy	-555
ft	-556
▁frie	-557
▁always	-558
aug	-559
▁home	-560
ug	-561
▁In	-562
pt	-563
ond	-564
raight	-565
ace	-566
▁away	-567
nder	-568
oll	-569
▁hold	-570
▁heart	-571
zy	-572
ix	-573
▁fall	-574
▁Sh	-575
▁little	-576
▁myself	-577
ff	-578
ars	-579
▁start	-580
opp	-581
▁stre	-582
ever	-583
?)	-584
▁long	-585
oot	-586
▁sk	-587
▁high	-588
▁two	-589
ool	-590
oom	-591
▁die	-592
▁talk	-593
▁Like	-594
▁talkin	-595
▁everything	-596
ild	-597
▁kid	-598
▁face	-599
▁thought	-600
ait	-601
ire	-602
▁Let	-603
▁leave	-604
▁ra	-605
▁find	-606
▁pain	-607
▁same	-608
▁hard	-609
irst	-610
▁work	-611
▁bot	-612
iz	-613
ort	-614
▁Nigg	-615
▁mother	-616
ment	-617
▁light	-618
ise	-619
ama	-620
▁hear	-621
▁watch	-622
▁Bl	-623
ated	-624
▁act	-625
ash	-626
▁huh	-627
▁Every	-628
ance	-629
ooh	-630
▁Can	-631
▁hate	-632
▁che	-633
▁lot	-634
▁loo	-635
thin	-636
▁our	-637
▁under	-638
▁whole	-639
ease	-640
▁str	-641
▁goin	-642
Ayy	-643
time	-644
▁Sha	-645
▁Who	-646
▁own	-647
ather	-648
▁bitches	-649
▁last	-650
ey	-651
▁la	-652
ict	-653
und	-654
ions	-655
pl	-656
▁wal	-657
▁came	-658
ans	-659
end	-660
ny	-661
▁bel	-662
get	-663
uss	-664
▁ey	-665
rop	-666
▁Get	-667
ts	-668
▁before	-669
▁nothin	-670
▁cra	-671
▁sin	-672
right	-673
os	-674
▁sha	-675
ings	-676
▁stay	-677
▁part	-678
▁happ	-679
▁side	-680
▁Ooh	-681
▁bro	-682
▁guess	-683
▁ad	-684
▁af	-685
▁enough	-686
▁bu	-687
▁game	-688
xt	-689
▁V	-690
ieve	-691
▁old	-692
▁beat	-693
les	-694
▁Ayy	-695
aybe	-696
ears	-697
▁song	-698
▁motherf	-699
ady	-700
til	-701
▁somethin	-702
ign	-703
▁big	-704
▁Then	-705
▁pray	-706
day	-707
ouse	-708
▁friends	-709
▁Do	-710
▁Look	-711
▁hand	-712
▁first	-713
ark	-714
akin	-715
▁into	-716
▁left	-717
▁inside	-718
▁wait	-719
▁word	-720
aught	-721
?"	-722
▁Ch	-723
▁Uh	-724
less	-725
▁rap	-726
ole	-727
▁dif	-728
fere	-729
▁dis	-730
unk	-731
▁knew	-732
▁stand	-733
oud	-734
reak	-735
▁dick	-736
▁rec	-737
▁With	-738
▁hands	-739
ach	-740
▁Or	-741
eal	-742
▁gra	-743
ne	-744
old	-745
▁Tell	-746
▁hope	-747
▁list	-748
nin	-749
▁didn	-750
ci	-751
▁For	-752
▁tra	-753
imp	-754
oul	-755
usic	-756
mer	-757
▁end	-758
▁care	-759
▁Sl	-760
▁car	-761
▁city	-762
▁eyes	-763
rr	-764
erve	-765
▁woo	-766
undred	-767
ich	-768
times	-769
▁though	-770
▁su	-771
▁per	-772
▁Lord	-773
▁shot	-774
▁used	-775
▁dream	-776
ons	-777
ippin	-778
▁lost	-779
▁differe	-780
Woo	-781
hy	-782
▁em	-783
▁pop	-784
▁late	-785
▁okay	-786
▁nobody	-787
sh	-788
▁un	-789
▁hoes	-790
ib	-791
▁fam	-792
▁yo	-793
What	-794
ussy	-795
▁gettin	-796
ove	-797
ets	-798
▁mot	-799
▁stop	-800
▁cont	-801
▁Bitch	-802
inkin	-803
ucker	-804
▁were	-805
▁res	-806
▁ph	-807
▁rapp	-808
▁black	-809
▁count	-810
nce	-811
▁seen	-812
▁alone	-813
▁crazy	-814
▁heard	-815
▁house	-816
▁music	-817
!)	-818
ater	-819
▁feelin	-820
hing	-821
▁bra	-822
▁soul	-823
▁other	-824
▁believe	-825
ms	-826
▁One	-827
▁fin	-828
▁went	-829
ory	-830
▁Why	-831
▁hur	-832
uckin	-833
▁gone	-834
▁many	-835
▁pull	-836
ins	-837
ses	-838
la	-839
eet	-840
▁best	-841
da	-842
ob	-843
▁sing	-844
▁while	-845
▁lookin	-846
lp	-847
▁Be	-848
▁dem	-849
▁mama	-850
..	-851
▁2	-852
pect	-853
▁damn	-854
▁free	-855
mber	-856
outh	-857
▁ask	-858
▁walk	-859
▁sleep	-860
▁gl	-861
ving	-862
▁woah	-863
▁Is	-864
▁Pl	-865
ress	-866
▁hundred	-867
og	-868
▁top	-869
▁help	-870
▁plan	-871
rew	-872
▁Man	-873
▁fly	-874
▁dead	-875
▁sound	-876
ors	-877
▁sit	-878
▁took	-879
aw	-880
ple	-881
▁room	-882
Ooh	-883
ably	-884
▁alright	-885
▁op	-886
▁move	-887
▁wish	-888
▁,	-889
now	-890
ness	-891
ting	-892
▁sure	-893
▁wrong	-894
oc	-895
umb	-896
ired	-897
▁lie	-898
▁everybody	-899
▁days	-900
▁straight	-901
▁hey	-902
▁min	-903
▁sky	-904
▁As	-905
▁fore	-906
▁well	-907
▁listen	-908
eak	-909
▁body	-910
**	-911
gin	-912
iam	-913
ily	-914
ost	-915
member	-916
▁another	-917
▁des	-918
Ah	-919
fect	-920
bably	-921
▁different	-922
man	-923
ont	-924
ence	-925
▁low	-926
▁deep	-927
▁hell	-928
▁pussy	-929
▁comin	-930
▁place	-931
ife	-932
uth	-933
▁white	-934
St	-935
cked	-936
▁Ain	-937
stand	-938
▁Shady	-939
▁change	-940
irty	-941
pped	-942
▁rel	-943
round	-944
▁broke	-945
row	-946
vil	-947
▁Tw	-948
▁drop	-949
▁kids	-950
▁going	-951
▁Niggas	-952
▁playin	-953
▁Al	-954
▁somebody	-955
ful	-956
▁flo	-957
▁something	-958
oppin	-959
▁blow	-960
▁cold	-961
▁doin	-962
ail	-963
▁since	-964
ank	-965
▁hom	-966
▁Where	-967
▁break	-968
▁happen	-969
▁next	-970
,"	-971
ase	-972
▁el	-973
esus	-974
ect	-975
▁Go	-976
▁ea	-977
▁eat	-978
▁mat	-979
▁Only	-980
▁ball	-981
▁phone	-982
no	-983
int	-984
earn	-985
▁gave	-986
▁close	-987
▁Not	-988
▁wasn	-989
▁check	-990
▁full	-991
▁grow	-992
min	-993
able	-994
▁mine	-995
▁roll	-996
iamond	-997
▁throw	-998
▁young	-999
▁understand	-1000
▁gun	-1001
▁shoot	-1002
▁probably	-1003
▁tea	-1004
▁Gu	-1005
▁ac	-1006
▁ah	-1007
▁miss	-1008
▁rock	-1009
▁Dr	-1010
▁Your	-1011
▁wonder	-1012
You	-1013
res	-1014
▁bus	-1015
ollow	-1016
▁Well	-1017
▁Nigga	-1018
orry	-1019
▁Hey	-1020
▁cry	-1021
▁trust	-1022
▁outside	-1023
▁cut	-1024
▁smoke	-1025
lin	-1026
ype	-1027
▁Re	-1028
▁Sm	-1029
▁sch	-1030
▁after	-1031
▁contro	-1032
▁mad	-1033
oment	-1034
▁open	-1035
▁There	-1036
▁drink	-1037
▁times	-1038
▁without	-1039
▁fun	-1040
▁record	-1041
Uh	-1042
unt	-1043
ush	-1044
▁Me	-1045
▁club	-1046
▁past	-1047
aid	-1048
▁app	-1049
▁gre	-1050
▁morn	-1051
▁please	-1052
▁Sw	-1053
▁mon	-1054
▁set	-1055
▁Come	-1056
▁truth	-1057
▁Back	-1058
▁pass	-1059
▁prom	-1060
▁moment	-1061
▁forever	-1062
▁Try	-1063
▁both	-1064
▁ride	-1065
▁wall	-1066
▁fight	-1067
▁lights	-1068
▁someone	-1069
▁Tr	-1070
▁hot	-1071
▁rid	-1072
ready	-1073
ucked	-1074
▁bag	-1075
▁lil	-1076
▁front	-1077
▁nothing	-1078
'?	-1079
ary	-1080
▁else	-1081
▁mill	-1082
▁livin	-1083
▁words	-1084
▁wanted	-1085
ower	-1086
▁att	-1087
▁Slim	-1088
▁save	-1089
▁bring	-1090
▁follow	-1091
▁three	-1092
▁brother	-1093
hed	-1094
rap	-1095
▁Baby	-1096
▁breat	-1097
▁years	-1098
ces	-1099
▁sn	-1100
▁See	-1101
▁doll	-1102
▁lose	-1103
▁Black	-1104
▁Maybe	-1105
cy	-1106
ize	-1107
led	-1108
per	-1109
▁vi	-1110
▁Take	-1111
ia	-1112
ye	-1113
ute	-1114
ious	-1115
▁Put	-1116
ged	-1117
▁Fl	-1118
addy	-1119
ared	-1120
icke	-1121
ntil	-1122
omen	-1123
▁sur	-1124
▁sayin	-1125
▁write	-1126
ze	-1127
▁pay	-1128
▁family	-1129
▁already	-1130
rrt	-1131
▁has	-1132
▁imp	-1133
▁flow	-1134
▁wind	-1135
▁couldn	-1136
▁yourself	-1137
It	-1138
mit	-1139
oop	-1140
▁La	-1141
▁war	-1142
▁jump	-1143
▁sorry	-1144
ys	-1145
ric	-1146
ason	-1147
▁buy	-1148
▁Woah	-1149
▁kind	-1150
▁line	-1151
▁party	-1152
▁yours	-1153
gs	-1154
sc	-1155
ner	-1156
osed	-1157
▁Okay	-1158
lly	-1159
ount	-1160
▁bea	-1161
▁Know	-1162
▁sell	-1163
onight	-1164
▁learn	-1165
▁school	-1166
ills	-1167
▁deal	-1168
▁true	-1169
▁These	-1170
ane	-1171
irt	-1172
atin	-1173
▁Call	-1174
▁pers	-1175
▁type	-1176
ition	-1177
▁Even	-1178
▁hurt	-1179
▁alive	-1180
▁block	-1181
▁proble	-1182
Straight	-1183
hes	-1184
ched	-1185
ouble	-1186
▁Feel	-1187
▁slow	-1188
▁tried	-1189
Til	-1190
▁win	-1191
▁conf	-1192
▁forg	-1193
▁found	-1194
ode	-1195
ren	-1196
ward	-1197
▁dope	-1198
▁fire	-1199
▁sick	-1200
icture	-1201
▁Jesus	-1202
▁maybe	-1203
▁thinkin	-1204
my	-1205
▁z	-1206
▁At	-1207
ivin	-1208
▁pea	-1209
▁fact	-1210
▁pret	-1211
▁perfect	-1212
sy	-1213
eek	-1214
ible	-1215
▁fan	-1216
▁ins	-1217
▁mur	-1218
▁sex	-1219
igger	-1220
▁today	-1221
▁reason	-1222
▁Sometimes	-1223
ird	-1224
mor	-1225
▁De	-1226
▁Sp	-1227
▁mom	-1228
ction	-1229
▁child	-1230
▁ly	-1231
ouch	-1232
▁ten	-1233
▁hour	-1234
▁must	-1235
▁their	-1236
▁wouldn	-1237
▁because	-1238
▁motherfucker	-1239
▁motherfuckin	-1240
Ha	-1241
ote	-1242
yeah	-1243
▁pen	-1244
▁Shit	-1245
▁fast	-1246
▁matter	-1247
▁tonight	-1248
als	-1249
hoo	-1250
ift	-1251
▁Pr	-1252
Woah	-1253
▁scream	-1254
ale	-1255
▁bo	-1256
acks	-1257
enty	-1258
▁dra	-1259
▁int	-1260
▁sec	-1261
iness	-1262
▁comp	-1263
▁couple	-1264
▁friend	-1265
▁air	-1266
▁dec	-1267
▁met	-1268
▁sun	-1269
▁goes	-1270
▁pick	-1271
tom	-1272
▁Damn	-1273
▁bull	-1274
▁door	-1275
▁sign	-1276
▁quest	-1277
▁remember	-1278
▁Girl	-1279
▁gold	-1280
▁star	-1281
▁mouth	-1282
▁swear	-1283
▁picture	-1284
▁Hell	-1285
▁wild	-1286
▁girls	-1287
▁knows	-1288
▁rather	-1289
mp	-1290
ugs	-1291
hind	-1292
▁cur	-1293
▁rep	-1294
▁half	-1295
▁hood	-1296
▁kick	-1297
▁year	-1298
▁catch	-1299
▁dance	-1300
▁peace	-1301
▁feeling	-1302
▁sometimes	-1303
av	-1304
dd	-1305
alty	-1306
ised	-1307
▁feet	-1308
▁sold	-1309
ape	-1310
ert	-1311
ian	-1312
come	-1313
▁Woo	-1314
▁far	-1315
▁rhy	-1316
▁ver	-1317
gether	-1318
▁Guess	-1319
▁makin	-1320
▁smile	-1321
▁started	-1322
▁Say	-1323
▁bed	-1324
▁gang	-1325
▁road	-1326
▁those	-1327
▁person	-1328
▁may	-1329
▁pie	-1330
▁fake	-1331
▁four	-1332
▁fucked	-1333
▁diamond	-1334
No	-1335
▁1	-1336
▁ab	-1337
▁Wor	-1338
▁bat	-1339
▁par	-1340
▁son	-1341
▁dark	-1342
▁seem	-1343
▁behind	-1344
▁dreams	-1345
▁streets	-1346
ced	-1347
▁Yo	-1348
▁hop	-1349
▁Make	-1350
▁mist	-1351
▁Never	-1352
▁blood	-1353
▁together	-1354
▁te	-1355
▁Com	-1356
▁bein	-1357
▁does	-1358
▁ment	-1359
▁drive	-1360
▁bottom	-1361
orm	-1362
ret	-1363
ands	-1364
raid	-1365
▁burn	-1366
▁once	-1367
▁rich	-1368
▁women	-1369
▁forget	-1370
▁control	-1371
▁fucking	-1372
Hey	-1373
ead	-1374
ens	-1375
ung	-1376
▁Br	-1377
▁Sc	-1378
uper	-1379
▁nah	-1380
▁power	-1381
▁minute	-1382
▁Everybody	-1383
ho	-1384
io	-1385
its	-1386
ense	-1387
▁Too	-1388
▁dro	-1389
▁hair	-1390
▁most	-1391
▁Q	-1392
...	-1393
oof	-1394
aste	-1395
rist	-1396
▁chill	-1397
▁drunk	-1398
▁touch	-1399
▁until	-1400
▁runnin	-1401
du	-1402
elt	-1403
iet	-1404
oes	-1405
▁im	-1406
Fuck	-1407
head	-1408
ster	-1409
▁dog	-1410
▁Cole	-1411
▁hang	-1412
▁soon	-1413
▁supp	-1414
▁brain	-1415
▁called	-1416
▁scared	-1417
Don	-1418
bum	-1419
ier	-1420
iqu	-1421
lla	-1422
▁Cl	-1423
▁Ha	-1424
▁Huh	-1425
▁def	-1426
▁yah	-1427
aking	-1428
▁laug	-1429
▁thoughts	-1430
de	-1431
okin	-1432
oose	-1433
ppin	-1434
▁reg	-1435
▁wake	-1436
▁Still	-1437
▁deserve	-1438
uff	-1439
▁Two	-1440
▁lay	-1441
▁squ	-1442
▁sum	-1443
▁Keep	-1444
▁fear	-1445
▁rest	-1446
▁compl	-1447
▁doing	-1448
bo	-1449
not	-1450
unch	-1451
▁comes	-1452
▁feels	-1453
▁killed	-1454
vel	-1455
▁An	-1456
▁ap	-1457
ations	-1458
▁motiv	-1459
▁worth	-1460
▁stress	-1461
att	-1462
med	-1463
wty	-1464
▁aw	-1465
light	-1466
▁mess	-1467
▁send	-1468
▁tryin	-1469
▁afraid	-1470
!"	-1471
act	-1472
▁Ah	-1473
▁Le	-1474
akes	-1475
▁Had	-1476
▁cop	-1477
▁hum	-1478
icked	-1479
▁coll	-1480
▁neck	-1481
▁step	-1482
▁floor	-1483
▁window	-1484
▁rappers	-1485
bb	-1486
ning	-1487
▁Won	-1488
▁sad	-1489
ither	-1490
opped	-1491
otion	-1492
▁From	-1493
▁shut	-1494
▁spit	-1495
▁chain	-1496
▁happy	-1497
▁thank	-1498
▁water	-1499
▁million	-1500
▁anything	-1501
▁da	-1502
▁na	-1503
▁sy	-1504
cept	-1505
▁Out	-1506
▁fre	-1507
▁Love	-1508
▁felt	-1509
▁meet	-1510
▁trip	-1511
▁weed	-1512
▁album	-1513
▁outta	-1514
▁murder	-1515
▁feelings	-1516
cent	-1517
oice	-1518
▁ser	-1519
▁six	-1520
▁comm	-1521
▁blame	-1522
▁death	-1523
▁proud	-1524
▁father	-1525
▁mornin	-1526
cle	-1527
▁Se	-1528
ract	-1529
▁Did	-1530
▁mis	-1531
▁Gotta	-1532
▁being	-1533
▁tired	-1534
aughter	-1535
▁Please	-1536
▁twenty	-1537
▁promise	-1538
arr	-1539
yle	-1540
▁Run	-1541
▁mic	-1542
umber	-1543
▁loud	-1544
▁ones	-1545
▁rhyme	-1546
▁street	-1547
▁respect	-1548
Huh	-1549
ling	-1550
▁med	-1551
▁Roll	-1552
▁suck	-1553
▁Tryna	-1554
▁meant	-1555
▁ready	-1556
▁callin	-1557
▁business	-1558
eas	-1559
ial	-1560
vent	-1561
▁New	-1562
▁Tal	-1563
▁isn	-1564
▁pur	-1565
▁less	-1566
eef	-1567
ica	-1568
▁add	-1569
▁fav	-1570
ually	-1571
▁Blow	-1572
▁Here	-1573
▁stuck	-1574
▁wrist	-1575
▁poppin	-1576
▁whatever	-1577
ult	-1578
vers	-1579
▁Are	-1580
▁Nah	-1581
▁pat	-1582
▁Give	-1583
▁paid	-1584
▁rain	-1585
▁team	-1586
▁town	-1587
▁homie	-1588
▁Christ	-1589
▁fallin	-1590
▁strong	-1591
do	-1592
▁X	-1593
Let	-1594
▁),	-1595
▁Kan	-1596
▁fig	-1597
ipped	-1598
▁case	-1599
▁cons	-1600
▁week	-1601
▁Smoke	-1602
▁story	-1603
▁question	-1604
cu	-1605
het	-1606
ues	-1607
▁ob	-1608
aper	-1609
ique	-1610
sent	-1611
▁Bet	-1612
▁ear	-1613
▁gen	-1614
▁saw	-1615
▁wit	-1616
▁wom	-1617
where	-1618
▁Amer	-1619
▁summer	-1620
▁tellin	-1621
gg	-1622
ror	-1623
imin	-1624
ross	-1625
▁bur	-1626
▁use	-1627
▁Mama	-1628
▁clos	-1629
▁crib	-1630
▁self	-1631
▁test	-1632
▁vibe	-1633
▁whip	-1634
▁press	-1635
iew	-1636
▁Qu	-1637
▁Ben	-1638
▁dep	-1639
▁vis	-1640
onest	-1641
▁Hear	-1642
▁fill	-1643
▁news	-1644
▁spot	-1645
▁build	-1646
▁daddy	-1647
▁watchin	-1648
az	-1649
That	-1650
▁quit	-1651
▁drugs	-1652
▁funny	-1653
▁great	-1654
▁means	-1655
▁quick	-1656
▁speak	-1657
▁bigger	-1658
▁turned	-1659
ks	-1660
lt	-1661
ics	-1662
ita	-1663
rick	-1664
▁opp	-1665
▁rem	-1666
onely	-1667
▁crack	-1668
▁takin	-1669
▁caught	-1670
ka	-1671
▁FE	-1672
ince	-1673
▁Big	-1674
▁acc	-1675
▁job	-1676
▁loy	-1677
▁Turn	-1678
▁bare	-1679
▁cool	-1680
▁skin	-1681
▁Watch	-1682
▁reach	-1683
▁trill	-1684
▁chance	-1685
▁problem	-1686
Th	-1687
rs	-1688
erg	-1689
ones	-1690
▁Cha	-1691
▁Hea	-1692
ivate	-1693
▁bust	-1694
▁dest	-1695
▁each	-1696
▁lean	-1697
▁nice	-1698
▁actin	-1699
▁favor	-1700
▁spend	-1701
▁wrote	-1702
▁Should	-1703
▁bottle	-1704
▁rapper	-1705
▁everyone	-1706
▁Z	-1707
▁Ra	-1708
cket	-1709
krrt	-1710
line	-1711
▁Gra	-1712
▁cle	-1713
▁ret	-1714
▁Told	-1715
▁cour	-1716
▁fell	-1717
▁ring	-1718
ousand	-1719
▁Kanye	-1720
▁makes	-1721
▁movin	-1722
▁Before	-1723
▁chains	-1724
▁Everything	-1725
bt	-1726
lo	-1727
▁Ho	-1728
Haha	-1729
udge	-1730
▁Real	-1731
▁Than	-1732
▁fing	-1733
▁five	-1734
▁hide	-1735
▁eight	-1736
▁grind	-1737
▁hours	-1738
▁songs	-1739
▁stick	-1740
▁number	-1741
▁looking	-1742
▁6	-1743
▁‘	-1744
Yah	-1745
ayy	-1746
▁ba	-1747
ifty	-1748
▁Lam	-1749
▁mil	-1750
▁mix	-1751
▁yes	-1752
uture	-1753
▁class	-1754
▁loved	-1755
▁honest	-1756
▁lonely	-1757
cr	-1758
Who	-1759
str	-1760
ates	-1761
eezy	-1762
only	-1763
▁Rea	-1764
▁bre	-1765
▁ent	-1766
▁guy	-1767
▁Life	-1768
▁gets	-1769
▁joke	-1770
▁sexy	-1771
▁wave	-1772
▁wear	-1773
morrow	-1774
▁grave	-1775
▁quiet	-1776
▁shine	-1777
▁treat	-1778
▁woman	-1779
▁cannot	-1780
▁dollar	-1781
▁second	-1782
▁trippin	-1783
▁tomorrow	-1784
gh	-1785
els	-1786
▁Un	-1787
▁fu	-1788
▁id	-1789
pton	-1790
▁pos	-1791
arted	-1792
illin	-1793
ments	-1794
▁shots	-1795
▁worry	-1796
▁motivated	-1797
cin	-1798
hmm	-1799
ips	-1800
nts	-1801
ten	-1802
▁Of	-1803
ards	-1804
iful	-1805
ject	-1806
▁Dre	-1807
▁Mmm	-1808
▁mir	-1809
▁pol	-1810
▁yuh	-1811
itate	-1812
▁char	-1813
▁sent	-1814
▁beaut	-1815
▁faith	-1816
▁later	-1817
▁dollars	-1818
yp	-1819
—,	-1820
ony	-1821
ray	-1822
ical	-1823
room	-1824
ssed	-1825
▁Ear	-1826
▁ang	-1827
▁dou	-1828
▁hoo	-1829
▁dist	-1830
▁land	-1831
eather	-1832
▁bless	-1833
▁workin	-1834
sw	-1835
ots	-1836
ugg	-1837
ines	-1838
▁fit	-1839
▁gas	-1840
▁ign	-1841
▁los	-1842
▁yet	-1843
ounce	-1844
▁Kend	-1845
▁boys	-1846
▁crew	-1847
▁godd	-1848
▁South	-1849
▁Would	-1850
▁kinda	-1851
▁pride	-1852
▁switch	-1853
▁forgive	-1854
Mm	-1855
cc	-1856
co	-1857
ps	-1858
huh	-1859
ief	-1860
▁('	-1861
▁Ro	-1862
Okay	-1863
eave	-1864
▁Was	-1865
▁ext	-1866
▁leg	-1867
ookin	-1868
ention	-1869
▁Young	-1870
▁cloud	-1871
▁devil	-1872
▁round	-1873
▁demons	-1874
▁brought	-1875
▁daughter	-1876
')	-1877
idd	-1878
ubb	-1879
vol	-1880
▁ve	-1881
ized	-1882
woah	-1883
▁Way	-1884
▁art	-1885
▁cap	-1886
▁col	-1887
▁inf	-1888
▁law	-1889
▁red	-1890
▁King	-1891
▁Will	-1892
▁bang	-1893
▁beef	-1894
▁expl	-1895
▁ways	-1896
▁least	-1897
▁point	-1898
▁track	-1899
▁America	-1900
▁changed	-1901
▁thinking	-1902
We	-1903
pr	-1904
ilt	-1905
ior	-1906
ork	-1907
****	-1908
hall	-1909
ides	-1910
urch	-1911
▁daw	-1912
▁esc	-1913
▁fad	-1914
▁opt	-1915
othes	-1916
▁cash	-1917
▁corn	-1918
▁hall	-1919
▁lies	-1920
▁asked	-1921
▁cause	-1922
▁getting	-1923
▁Kendrick	-1924
ph	-1925
te	-1926
▁Mr	-1927
ween	-1928
▁mar	-1929
▁Jump	-1930
▁Time	-1931
▁Wait	-1932
▁West	-1933
▁cake	-1934
▁enem	-1935
▁fine	-1936
▁kiss	-1937
▁White	-1938
▁drown	-1939
▁inter	-1940
▁state	-1941
▁sweet	-1942
▁tears	-1943
▁bought	-1944
▁Af	-1945
iles	-1946
ists	-1947
rees	-1948
▁adv	-1949
▁emp	-1950
▁ice	-1951
▁ran	-1952
▁foot	-1953
▁keys	-1954
▁numb	-1955
▁paper	-1956
▁style	-1957
arshall	-1958
▁Heaven	-1959
▁homies	-1960
▁needed	-1961
▁played	-1962
▁walkin	-1963
▁morning	-1964
▁happened	-1965
wa	-1966
The	-1967
gel	-1968
udd	-1969
▁TV	-1970
▁ce	-1971
▁ma	-1972
▁mm	-1973
edic	-1974
idin	-1975
ille	-1976
iver	-1977
most	-1978
▁bar	-1979
▁boo	-1980
▁dad	-1981
▁ris	-1982
igher	-1983
▁****	-1984
▁Good	-1985
▁Pull	-1986
▁Think	-1987
▁admit	-1988
▁clean	-1989
▁knock	-1990
▁laugh	-1991
▁sense	-1992
▁barely	-1993
▁killin	-1994
▁single	-1995
▁Thought	-1996
▁against	-1997
▁thousand	-1998
ipe	-1999
▁Cr	-2000
aine	-2001
ighb	-2002
ined	-2003
▁His	-2004
▁iss	-2005
anger	-2006
▁Been	-2007
▁Sing	-2008
▁liqu	-2009
▁push	-2010
▁safe	-2011
▁Flame	-2012
▁Right	-2013
▁lyric	-2014
▁month	-2015
otional	-2016
▁Better	-2017
▁figure	-2018
▁future	-2019
▁harder	-2020
▁mirror	-2021
▁loyalty	-2022
▁pretend	-2023
▁Remember	-2024
▁supposed	-2025
zz	-2026
▁Am	-2027
ison	-2028
rest	-2029
used	-2030
▁Any	-2031
▁Boy	-2032
▁Mom	-2033
▁cir	-2034
▁few	-2035
▁ind	-2036
▁mag	-2037
ating	-2038
▁Have	-2039
▁Hold	-2040
▁conc	-2041
▁disc	-2042
▁fans	-2043
▁grab	-2044
▁legs	-2045
▁none	-2046
▁very	-2047
▁yell	-2048
▁Count	-2049
▁Money	-2050
▁Super	-2051
▁carry	-2052
▁dirty	-2053
▁loose	-2054
▁coming	-2055
▁double	-2056
▁forgot	-2057
▁goddamn	-2058
.,	-2059
uj	-2060
air	-2061
ude	-2062
▁ow	-2063
▁ru	-2064
ames	-2065
ants	-2066
cial	-2067
olog	-2068
▁bab	-2069
▁ele	-2070
▁emb	-2071
▁dirt	-2072
▁diss	-2073
▁easy	-2074
▁fame	-2075
▁heat	-2076
▁lead	-2077
▁surv	-2078
▁Shake	-2079
▁piece	-2080
▁small	-2081
▁store	-2082
▁Swerve	-2083
▁breath	-2084
▁clique	-2085
▁prolly	-2086
▁saying	-2087
▁taught	-2088
▁clothes	-2089
▁finally	-2090
▁monster	-2091
br	-2092
Get	-2093
ats	-2094
ubl	-2095
une	-2096
▁20	-2097
▁Gr	-2098
ergy	-2099
iend	-2100
▁Hit	-2101
▁Int	-2102
▁Pro	-2103
▁mam	-2104
▁spin	-2105
▁spir	-2106
▁view	-2107
▁weak	-2108
▁Hello	-2109
▁Might	-2110
▁Throw	-2111
▁finna	-2112
▁judge	-2113
▁twice	-2114
▁energy	-2115
▁ground	-2116
▁Compton	-2117
▁Started	-2118
▁between	-2119
▁talking	-2120
▁diamonds	-2121
▁favorite	-2122
He	-2123
▁5	-2124
avy	-2125
ters	-2126
▁Bit	-2127
▁cup	-2128
▁mmm	-2129
▁wis	-2130
entle	-2131
▁seat	-2132
▁such	-2133
▁While	-2134
▁Yeezy	-2135
▁begin	-2136
▁doubt	-2137
▁level	-2138
▁stars	-2139
▁neighb	-2140
▁Diamond	-2141
▁breathe	-2142
."	-2143
▁3	-2144
men	-2145
▁ta	-2146
anta	-2147
sion	-2148
▁men	-2149
▁pas	-2150
Bitch	-2151
aster	-2152
night	-2153
rough	-2154
▁Last	-2155
▁Play	-2156
▁Stop	-2157
▁king	-2158
▁stom	-2159
▁tour	-2160
▁writ	-2161
▁shoes	-2162
▁slide	-2163
▁walls	-2164
▁Always	-2165
▁Fuckin	-2166
▁addict	-2167
▁either	-2168
▁liquor	-2169
err	-2170
imb	-2171
ual	-2172
yin	-2173
▁Aw	-2174
▁Ex	-2175
▁Hi	-2176
▁Te	-2177
▁mi	-2178
Fore	-2179
back	-2180
eluj	-2181
empt	-2182
▁May	-2183
▁exp	-2184
▁tee	-2185
ative	-2186
ience	-2187
wards	-2188
▁Benz	-2189
▁More	-2190
▁dumb	-2191
▁moon	-2192
▁pack	-2193
elujah	-2194
▁Earth	-2195
▁apart	-2196
▁askin	-2197
▁doesn	-2198
▁givin	-2199
▁green	-2200
▁produ	-2201
▁seems	-2202
▁sellin	-2203
▁Straight	-2204
▁children	-2205
On	-2206
by	-2207
All	-2208
acy	-2209
haf	-2210
lew	-2211
meh	-2212
ney	-2213
oid	-2214
ron	-2215
ted	-2216
▁21	-2217
▁Lu	-2218
ange	-2219
ator	-2220
ices	-2221
more	-2222
▁dig	-2223
ities	-2224
▁boot	-2225
▁cous	-2226
▁fair	-2227
ressed	-2228
▁dedic	-2229
▁voice	-2230
▁church	-2231
▁famous	-2232
▁living	-2233
▁prayin	-2234
▁smokin	-2235
▁trying	-2236
▁waitin	-2237
▁problems	-2238
▁screamin	-2239
▁beautiful	-2240
21	-2241
Ra	-2242
hm	-2243
▁—	-2244
And	-2245
Why	-2246
erk	-2247
erv	-2248
fit	-2249
lex	-2250
uts	-2251
▁Co	-2252
chin	-2253
haha	-2254
▁Che	-2255
▁Hom	-2256
▁Jay	-2257
▁Mar	-2258
▁Ten	-2259
▁scr	-2260
atest	-2261
umble	-2262
▁evil	-2263
▁flip	-2264
▁lyin	-2265
▁text	-2266
▁bands	-2267
▁bleed	-2268
▁fifty	-2269
▁lives	-2270
▁sight	-2271
▁stage	-2272
▁taste	-2273
▁escape	-2274
▁longer	-2275
▁pretty	-2276
▁learned	-2277
cl	-2278
gue	-2279
urt	-2280
ves	-2281
▁Mo	-2282
five	-2283
▁Mer	-2284
▁box	-2285
▁eye	-2286
▁sal	-2287
▁wet	-2288
istol	-2289
▁RaRa	-2290
▁answ	-2291
▁arms	-2292
▁mane	-2293
▁stud	-2294
▁Devil	-2295
▁blind	-2296
▁known	-2297
▁momma	-2298
▁skrrt	-2299
▁which	-2300
▁choose	-2301
▁lately	-2302
▁nights	-2303
ays	-2304
let	-2305
omb	-2306
owd	-2307
atic	-2308
fend	-2309
▁Hop	-2310
▁Wal	-2311
▁lab	-2312
▁spl	-2313
ified	-2314
▁bank	-2315
▁fool	-2316
▁read	-2317
▁fancy	-2318
▁names	-2319
▁shawty	-2320
▁nowhere	-2321
▁attention	-2322
Dr	-2323
Go	-2324
esh	-2325
ned	-2326
pon	-2327
▁Fr	-2328
▁Lo	-2329
▁Ne	-2330
▁Po	-2331
icul	-2332
illa	-2333
king	-2334
olly	-2335
uice	-2336
▁Sit	-2337
▁cre	-2338
▁ref	-2339
▁sce	-2340
▁ste	-2341
isten	-2342
▁Free	-2343
▁Rock	-2344
▁Said	-2345
▁Took	-2346
▁main	-2347
▁Leave	-2348
▁crowd	-2349
▁hurts	-2350
▁plane	-2351
▁shake	-2352
▁verse	-2353
▁finger	-2354
▁mothaf	-2355
▁strugg	-2356
▁woulda	-2357
▁shoulda	-2358
▁mistakes	-2359
vy	-2360
▁9	-2361
amp	-2362
ery	-2363
iff	-2364
ton	-2365
Damn	-2366
Hold	-2367
host	-2368
igga	-2369
upid	-2370
▁Bad	-2371
▁Off	-2372
▁fat	-2373
▁fed	-2374
acita	-2375
icken	-2376
ished	-2377
▁Chan	-2378
▁Made	-2379
▁draw	-2380
▁post	-2381
▁roof	-2382
romise	-2383
▁Since	-2384
▁Thank	-2385
▁angel	-2386
▁ridin	-2387
▁saved	-2388
▁shows	-2389
▁viole	-2390
respect	-2391
▁People	-2392
—)	-2393
ids	-2394
ume	-2395
▁Mm	-2396
▁wa	-2397
This	-2398
ured	-2399
▁Mic	-2400
▁Pac	-2401
▁Yes	-2402
Jesus	-2403
ashin	-2404
otect	-2405
▁Ever	-2406
▁Them	-2407
▁bill	-2408
▁born	-2409
▁cost	-2410
▁heal	-2411
▁lift	-2412
▁tear	-2413
▁Could	-2414
▁float	-2415
▁paint	-2416
▁Lookin	-2417
▁Thirty	-2418
▁almost	-2419
▁become	-2420
▁expect	-2421
▁insane	-2422
▁Through	-2423
▁anymore	-2424
▁drinkin	-2425
▁Marshall	-2426
▁Somebody	-2427
▁darkness	-2428
▁difference	-2429
eg	-2430
mb	-2431
How	-2432
app	-2433
ees	-2434
lev	-2435
Like	-2436
Look	-2437
cher	-2438
fort	-2439
ging	-2440
star	-2441
waan	-2442
wood	-2443
▁Lou	-2444
▁dar	-2445
▁fix	-2446
▁hol	-2447
▁sna	-2448
arter	-2449
iving	-2450
ongue	-2451
▁Drop	-2452
▁cell	-2453
▁dawg	-2454
▁died	-2455
▁fold	-2456
▁hung	-2457
▁jail	-2458
▁nose	-2459
▁woke	-2460
▁Daddy	-2461
▁ahead	-2462
▁chick	-2463
▁clear	-2464
▁cross	-2465
▁havin	-2466
▁order	-2467
▁pills	-2468
▁super	-2469
▁tight	-2470
▁worse	-2471
▁Father	-2472
▁Shawty	-2473
▁flight	-2474
▁motion	-2475
▁thirty	-2476
▁Alright	-2477
▁dropped	-2478
▁sleepin	-2479
▁pictures	-2480
go	-2481
​​	-2482
Man	-2483
cha	-2484
ety	-2485
ina	-2486
iny	-2487
ved	-2488
▁Ow	-2489
ages	-2490
mell	-2491
▁(21	-2492
▁Hen	-2493
▁Hmm	-2494
▁Lil	-2495
▁dam	-2496
▁fro	-2497
▁rac	-2498
allow	-2499
iddle	-2500
ident	-2501
▁Late	-2502
▁bars	-2503
▁base	-2504
▁bird	-2505
▁code	-2506
▁fade	-2507
▁guns	-2508
▁mood	-2509
▁tape	-2510
▁World	-2511
▁holla	-2512
▁keeps	-2513
▁short	-2514
▁waste	-2515
iculous	-2516
otivate	-2517
▁Mother	-2518
▁import	-2519
▁looked	-2520
▁making	-2521
▁remind	-2522
▁Jumpman	-2523
▁actually	-2524
gu	-2525
sp	-2526
Nah	-2527
ana	-2528
six	-2529
▁Ye	-2530
▁ir	-2531
▁pus	-2532
▁rad	-2533
▁rot	-2534
ackin	-2535
ister	-2536
▁Down	-2537
▁bish	-2538
▁grid	-2539
▁hust	-2540
▁kept	-2541
▁nine	-2542
▁park	-2543
▁pill	-2544
▁says	-2545
ealous	-2546
ertain	-2547
icated	-2548
▁chest	-2549
▁dress	-2550
▁empty	-2551
▁slave	-2552
▁smell	-2553
▁Nobody	-2554
▁danger	-2555
▁higher	-2556
▁humble	-2557
▁rappin	-2558
▁rollin	-2559
▁Superman	-2560
▁ridiculous	-2561
ik	-2562
ns	-2563
of	-2564
how	-2565
rah	-2566
the	-2567
aint	-2568
ered	-2569
etro	-2570
iers	-2571
yard	-2572
▁Sat	-2573
▁bod	-2574
▁cum	-2575
▁det	-2576
▁god	-2577
▁sip	-2578
Skrrt	-2579
ublic	-2580
▁City	-2581
▁cars	-2582
▁feed	-2583
▁purp	-2584
▁thro	-2585
▁wast	-2586
fucker	-2587
idence	-2588
oyalty	-2589
rapped	-2590
▁champ	-2591
▁cover	-2592
▁hopin	-2593
▁older	-2594
▁shout	-2595
▁Really	-2596
▁Talkin	-2597
▁broken	-2598
▁issues	-2599
▁locked	-2600
▁mental	-2601
▁pocket	-2602
▁thirst	-2603
▁tongue	-2604
▁convers	-2605
▁options	-2606
▁running	-2607
▁soldier	-2608
▁stomach	-2609
▁Something	-2610
My	-2611
ges	-2612
key	-2613
ppy	-2614
anny	-2615
ault	-2616
ctor	-2617
shit	-2618
utes	-2619
▁Hov	-2620
▁bla	-2621
▁cor	-2622
▁spe	-2623
▁prop	-2624
▁sile	-2625
ssible	-2626
▁Drake	-2627
▁Which	-2628
▁beats	-2629
▁bunch	-2630
▁grand	-2631
▁heavy	-2632
▁lines	-2633
▁plans	-2634
▁trees	-2635
▁wants	-2636
▁Listen	-2637
▁cousin	-2638
▁legacy	-2639
▁spirit	-2640
▁Bitches	-2641
▁survive	-2642
▁trapped	-2643
▁working	-2644
▁greatest	-2645
▁pressure	-2646
▁disrespect	-2647
alm	-2648
ath	-2649
ler	-2650
mes	-2651
ram	-2652
▁Ad	-2653
▁ed	-2654
eady	-2655
gend	-2656
hael	-2657
hole	-2658
ient	-2659
stem	-2660
▁Per	-2661
▁aff	-2662
▁ill	-2663
inite	-2664
▁Hail	-2665
▁High	-2666
▁Lost	-2667
▁Sund	-2668
▁Used	-2669
▁blue	-2670
▁excu	-2671
▁fail	-2672
▁hole	-2673
▁lied	-2674
▁sins	-2675
▁After	-2676
▁Louis	-2677
▁chose	-2678
▁gener	-2679
▁ghost	-2680
▁juice	-2681
▁seein	-2682
▁spent	-2683
▁worst	-2684
▁holdin	-2685
▁stupid	-2686
▁system	-2687
▁message	-2688
▁mistake	-2689
▁weather	-2690
▁millions	-2691
▁important	-2692
-1	-2693
oe	-2694
tw	-2695
any	-2696
mon	-2697
vis	-2698
▁di	-2699
ires	-2700
irth	-2701
rets	-2702
ried	-2703
▁Chi	-2704
▁ago	-2705
▁ant	-2706
▁bam	-2707
▁bas	-2708
▁dip	-2709
▁hip	-2710
▁mod	-2711
▁pot	-2712
▁sat	-2713
cious	-2714
ckets	-2715
istic	-2716
▁Fore	-2717
▁Hope	-2718
▁Pass	-2719
▁Pray	-2720
▁Work	-2721
▁bigg	-2722
▁book	-2723
▁grew	-2724
▁imag	-2725
▁pare	-2726
▁slip	-2727
▁wife	-2728
▁court	-2729
▁crash	-2730
▁freak	-2731
▁freed	-2732
▁limit	-2733
▁takes	-2734
ression	-2735
▁Wonder	-2736
▁common	-2737
▁knowin	-2738
▁pistol	-2739
▁pulled	-2740
▁raised	-2741
▁taking	-2742
▁walked	-2743
▁Michael	-2744
▁enemies	-2745
▁explain	-2746
▁grindin	-2747
▁mention	-2748
▁protect	-2749
▁trouble	-2750
▁shoulder	-2751
▁whenever	-2752
Sh	-2753
▁4	-2754
▁8	-2755
bye	-2756
duh	-2757
ket	-2758
vie	-2759
▁Bu	-2760
ider	-2761
ital	-2762
ited	-2763
nect	-2764
roke	-2765
▁Nor	-2766
▁Top	-2767
▁bow	-2768
▁dan	-2769
▁dry	-2770
▁foc	-2771
▁pee	-2772
▁tie	-2773
▁tip	-2774
▁wea	-2775
Where	-2776
ution	-2777
▁Jord	-2778
▁bles	-2779
▁circ	-2780
▁coff	-2781
▁cops	-2782
▁grad	-2783
▁inst	-2784
▁pour	-2785
▁punk	-2786
▁birth	-2787
▁games	-2788
▁glass	-2789
▁glory	-2790
▁looks	-2791
▁needs	-2792
▁prove	-2793
▁scary	-2794
▁Bentle	-2795
▁anyone	-2796
▁apolog	-2797
▁career	-2798
▁clouds	-2799
▁handle	-2800
▁offend	-2801
▁police	-2802
▁sounds	-2803
▁weight	-2804
▁wishin	-2805
▁Because	-2806
▁Promise	-2807
▁Thinkin	-2808
▁blessed	-2809
▁chicken	-2810
▁shouldn	-2811
▁waiting	-2812
▁dedicate	-2813
di	-2814
yo	-2815
eam	-2816
ege	-2817
ipt	-2818
use	-2819
▁Sn	-2820
auce	-2821
cker	-2822
fuck	-2823
teen	-2824
▁Rap	-2825
▁aim	-2826
▁beg	-2827
▁jam	-2828
▁pow	-2829
Drank	-2830
icide	-2831
itive	-2832
ustry	-2833
▁Need	-2834
▁Want	-2835
▁crit	-2836
▁lack	-2837
▁mall	-2838
▁piss	-2839
▁trap	-2840
ervous	-2841
iminal	-2842
▁Heart	-2843
▁blunt	-2844
▁memor	-2845
▁price	-2846
▁raise	-2847
▁scene	-2848
▁seven	-2849
▁share	-2850
▁spray	-2851
▁weird	-2852
▁blowin	-2853
▁bright	-2854
▁corner	-2855
▁embarr	-2856
▁gangst	-2857
▁Someone	-2858
▁anybody	-2859
▁purpose	-2860
▁Diamonds	-2861
▁hallelujah	-2862
▁complicated	-2863
",	-2864
0,	-2865
Yo	-2866
Hol	-2867
cks	-2868
oth	-2869
sec	-2870
▁Ph	-2871
ball	-2872
cing	-2873
ield	-2874
onic	-2875
ored	-2876
ship	-2877
▁Car	-2878
▁Sta	-2879
▁its	-2880
▁key	-2881
▁mas	-2882
▁meh	-2883
▁sub	-2884
▁vac	-2885
▁whe	-2886
ooked	-2887
▁Beat	-2888
▁Hard	-2889
▁Long	-2890
▁Show	-2891
▁boss	-2892
▁busy	-2893
▁cand	-2894
▁cent	-2895
▁dire	-2896
▁sear	-2897
▁succ	-2898
atinum	-2899
ipping	-2900
vitate	-2901
▁Feels	-2902
▁First	-2903
▁balls	-2904
▁climb	-2905
▁doors	-2906
▁dough	-2907
▁falls	-2908
▁losin	-2909
▁speed	-2910
▁steal	-2911
▁strip	-2912
▁thang	-2913
▁train	-2914
▁battle	-2915
▁closed	-2916
▁killer	-2917
▁months	-2918
▁regret	-2919
▁studio	-2920
▁throat	-2921
▁Bentley	-2922
▁jealous	-2923
▁nervous	-2924
▁passion	-2925
▁memories	-2926
▁stronger	-2927
▁struggle	-2928
▁motherfuckers	-2929
In	-2930
rt	-2931
cer	-2932
erm	-2933
ete	-2934
hop	-2935
mas	-2936
mmm	-2937
ums	-2938
▁ol	-2939
aded	-2940
lent	-2941
oppy	-2942
▁Con	-2943
▁Him	-2944
▁Lit	-2945
▁aut	-2946
▁cla	-2947
▁hyp	-2948
acked	-2949
angin	-2950
eakin	-2951
icker	-2952
ories	-2953
▁Shut	-2954
▁babe	-2955
▁chas	-2956
▁ends	-2957
▁fack	-2958
▁funk	-2959
▁furt	-2960
▁luck	-2961
▁resp	-2962
▁simp	-2963
atched	-2964
istory	-2965
▁Pussy	-2966
▁Until	-2967
▁brick	-2968
▁clown	-2969
▁creep	-2970
▁crime	-2971
▁human	-2972
▁sweat	-2973
▁trash	-2974
▁trick	-2975
▁Hailie	-2976
▁Nothin	-2977
▁closer	-2978
▁legend	-2979
▁lyrics	-2980
▁public	-2981
▁turnin	-2982
ollywood	-2983
▁buildin	-2984
▁happens	-2985
▁holding	-2986
▁swallow	-2987
▁backwards	-2988
▁mothafuckin	-2989
La	-2990
bl	-2991
ada	-2992
ali	-2993
asy	-2994
ern	-2995
ger	-2996
ify	-2997
scr	-2998
zed	-2999
zin	-3000
▁Gl	-3001
▁Sk	-3002
▁Up	-3003
agne	-3004
alse	-3005
anna	-3006
damn	-3007
full	-3008
imme	-3009
rite	-3010
roll	-3011
ular	-3012
▁Gre	-3013
▁Tra	-3014
▁ann	-3015
▁den	-3016
▁din	-3017
▁doo	-3018
▁kit	-3019
▁tru	-3020
▁tur	-3021
ights	-3022
rated	-3023
unity	-3024
▁cond	-3025
▁guys	-3026
▁holl	-3027
▁rent	-3028
▁wack	-3029
▁woop	-3030
▁along	-3031
▁blade	-3032
▁exact	-3033
▁fresh	-3034
▁haven	-3035
▁hooch	-3036
▁invol	-3037
▁miles	-3038
▁pants	-3039
▁pract	-3040
▁space	-3041
▁belong	-3042
▁course	-3043
▁damage	-3044
▁decide	-3045
▁finish	-3046
▁therap	-3047
▁bottles	-3048
▁chances	-3049
▁college	-3050
▁destiny	-3051
▁letting	-3052
▁project	-3053
▁Somethin	-3054
▁wonderin	-3055
▁dangerous	-3056
▁emotional	-3057
▁Motherfucker	-3058
lu	-3059
bel	-3060
ero	-3061
for	-3062
ibe	-3063
ogn	-3064
ohn	-3065
xic	-3066
▁MC	-3067
▁Ma	-3068
▁er	-3069
Town	-3070
hood	-3071
land	-3072
sych	-3073
▁Act	-3074
▁Cop	-3075
▁Red	-3076
▁del	-3077
▁hon	-3078
▁mud	-3079
▁rip	-3080
▁yup	-3081
ashed	-3082
▁cred	-3083
▁edge	-3084
▁food	-3085
▁gift	-3086
▁grey	-3087
▁insp	-3088
▁plus	-3089
▁pole	-3090
▁suff	-3091
▁vict	-3092
ession	-3093
hether	-3094
▁bread	-3095
▁extra	-3096
▁liked	-3097
▁teeth	-3098
▁truck	-3099
▁twist	-3100
▁convin	-3101
▁leavin	-3102
▁notice	-3103
▁passed	-3104
▁puttin	-3105
▁wildin	-3106
▁winter	-3107
▁biggest	-3108
▁country	-3109
▁freedom	-3110
▁parents	-3111
▁pockets	-3112
▁records	-3113
▁standin	-3114
▁bullshit	-3115
▁industry	-3116
▁Christmas	-3117
ki	-3118
ls	-3119
▁-	-3120
Now	-3121
One	-3122
ald	-3123
aly	-3124
bam	-3125
boo	-3126
cci	-3127
ili	-3128
ius	-3129
oun	-3130
▁tu	-3131
Bout	-3132
aked	-3133
amed	-3134
bbin	-3135
came	-3136
down	-3137
eeke	-3138
elve	-3139
eral	-3140
gest	-3141
pper	-3142
read	-3143
tain	-3144
ures	-3145
woop	-3146
▁Atl	-3147
▁Bra	-3148
▁Par	-3149
▁inc	-3150
▁jet	-3151
▁jew	-3152
▁neg	-3153
issed	-3154
▁(21)	-3155
▁Came	-3156
▁Four	-3157
▁John	-3158
▁Must	-3159
▁Plus	-3160
▁bass	-3161
▁bump	-3162
▁fulf	-3163
▁glad	-3164
▁hits	-3165
▁inno	-3166
▁plot	-3167
▁swim	-3168
▁Catch	-3169
▁Tired	-3170
▁Wanna	-3171
▁built	-3172
▁calls	-3173
▁curse	-3174
▁demon	-3175
▁grown	-3176
▁lotta	-3177
▁movie	-3178
▁pound	-3179
▁screw	-3180
▁shirt	-3181
▁signs	-3182
▁third	-3183
▁threw	-3184
▁visit	-3185
▁Smokin	-3186
▁answer	-3187
▁bullet	-3188
▁disapp	-3189
▁intent	-3190
▁signed	-3191
▁sippin	-3192
▁comfort	-3193
▁falling	-3194
▁history	-3195
▁minutes	-3196
▁special	-3197
▁basement	-3198
▁criminal	-3199
▁distance	-3200
▁mamacita	-3201
▁neighbor	-3202
▁Hollywood	-3203
▁somewhere	-3204
AC	-3205
Al	-3206
NA	-3207
iP	-3208
Mmm	-3209
ago	-3210
hip	-3211
sel	-3212
set	-3213
ury	-3214
▁Ar	-3215
ival	-3216
ners	-3217
unny	-3218
ying	-3219
▁Roc	-3220
▁age	-3221
▁duh	-3222
▁fra	-3223
▁tem	-3224
Round	-3225
dered	-3226
eason	-3227
erday	-3228
ision	-3229
oices	-3230
▁Five	-3231
▁Mike	-3232
▁Next	-3233
▁Same	-3234
▁bite	-3235
▁butt	-3236
▁fagg	-3237
▁lips	-3238
▁pool	-3239
▁pump	-3240
▁rare	-3241
athers	-3242
▁Gramm	-3243
▁Gucci	-3244
▁Three	-3245
▁allow	-3246
▁color	-3247
▁gwaan	-3248
▁moves	-3249
▁radio	-3250
▁relig	-3251
▁shame	-3252
▁split	-3253
▁wings	-3254
▁Sunday	-3255
▁anyway	-3256
▁hangin	-3257
▁ignore	-3258
▁loving	-3259
▁pieces	-3260
▁recogn	-3261
▁rhymes	-3262
▁settle	-3263
▁weapon	-3264
esterday	-3265
▁Mathers	-3266
▁bullets	-3267
▁darling	-3268
▁realize	-3269
▁position	-3270
▁promised	-3271
▁Southside	-3272
▁questions	-3273
bu	-3274
boy	-3275
eer	-3276
two	-3277
zen	-3278
▁By	-3279
▁El	-3280
▁gy	-3281
aced	-3282
ails	-3283
face	-3284
iced	-3285
lebr	-3286
leep	-3287
play	-3288
▁Bel	-3289
▁DNA	-3290
▁Hot	-3291
▁Ice	-3292
▁Kim	-3293
▁Pop	-3294
▁Spe	-3295
▁Yah	-3296
▁ama	-3297
▁amb	-3298
▁cro	-3299
▁deg	-3300
▁mor	-3301
▁pan	-3302
▁ped	-3303
▁rea	-3304
▁sav	-3305
▁van	-3306
fully	-3307
lcome	-3308
ollar	-3309
riend	-3310
udden	-3311
▁Head	-3312
▁Mart	-3313
▁Mary	-3314
▁Nick	-3315
▁baow	-3316
▁bath	-3317
▁blew	-3318
▁chee	-3319
▁clue	-3320
▁date	-3321
▁drug	-3322
▁impo	-3323
▁link	-3324
▁mark	-3325
▁norm	-3326
▁scre	-3327
▁slap	-3328
achine	-3329
▁Wayne	-3330
▁booth	-3331
▁broad	-3332
▁drove	-3333
▁flows	-3334
▁magic	-3335
▁table	-3336
▁thick	-3337
▁Jordan	-3338
▁afford	-3339
▁camera	-3340
▁closet	-3341
▁drivin	-3342
▁picked	-3343
▁popped	-3344
▁pushin	-3345
▁relief	-3346
▁singin	-3347
▁vision	-3348
▁Goddamn	-3349
▁Nothing	-3350
▁droppin	-3351
▁goodbye	-3352
▁quarter	-3353
▁reality	-3354
▁spinnin	-3355
▁stoppin	-3356
▁changing	-3357
▁complain	-3358
▁involved	-3359
▁personal	-3360
▁platinum	-3361
▁stressed	-3362
▁impossible	-3363
▁conversation	-3364
gn	-3365
ru	-3366
▁*	-3367
▁.	-3368
ari	-3369
bby	-3370
coh	-3371
doo	-3372
elp	-3373
oin	-3374
rac	-3375
▁10	-3376
▁CD	-3377
▁Kn	-3378
▁et	-3379
▁ev	-3380
▁ur	-3381
Baby	-3382
aged	-3383
eath	-3384
hest	-3385
iest	-3386
ilin	-3387
ises	-3388
ives	-3389
plex	-3390
stru	-3391
umps	-3392
vice	-3393
▁Squ	-3394
▁nut	-3395
▁vir	-3396
anted	-3397
atter	-3398
cohol	-3399
ickin	-3400
minem	-3401
venge	-3402
▁Left	-3403
▁Talk	-3404
▁cure	-3405
▁dyin	-3406
▁flex	-3407
▁form	-3408
▁hero	-3409
▁lame	-3410
▁pops	-3411
▁raps	-3412
▁risk	-3413
▁rush	-3414
▁sche	-3415
▁soft	-3416
▁whoa	-3417
▁zone	-3418
cially	-3419
▁choke	-3420
▁chopp	-3421
▁faces	-3422
▁faded	-3423
▁fault	-3424
▁hello	-3425
▁hotel	-3426
▁label	-3427
▁often	-3428
▁plate	-3429
▁quite	-3430
▁sauce	-3431
▁spoke	-3432
▁stare	-3433
▁strap	-3434
▁stuff	-3435
▁ticke	-3436
ational	-3437
▁Gettin	-3438
▁Little	-3439
▁flames	-3440
▁haters	-3441
▁middle	-3442
▁poison	-3443
▁simple	-3444
▁sinner	-3445
▁wicked	-3446
▁asshole	-3447
▁calling	-3448
▁mission	-3449
▁moments	-3450
▁private	-3451
▁telling	-3452
▁brothers	-3453
▁gangstas	-3454
▁relation	-3455
▁violence	-3456
ba	-3457
▁​	-3458
Can	-3459
For	-3460
She	-3461
arb	-3462
aul	-3463
lon	-3464
ows	-3465
ras	-3466
roy	-3467
uit	-3468
▁Em	-3469
▁es	-3470
aboo	-3471
amin	-3472
angu	-3473
anin	-3474
cast	-3475
ived	-3476
izzy	-3477
lept	-3478
like	-3479
rodu	-3480
sess	-3481
town	-3482
vern	-3483
▁Bam	-3484
▁Cra	-3485
▁Ste	-3486
▁kar	-3487
▁pit	-3488
▁raw	-3489
▁sol	-3490
asses	-3491
hamed	-3492
ility	-3493
vious	-3494
▁Deep	-3495
▁Hate	-3496
▁Inst	-3497
▁Kill	-3498
▁Lucy	-3499
▁Most	-3500
▁Over	-3501
▁Road	-3502
▁beha	-3503
▁buzz	-3504
▁dime	-3505
▁drag	-3506
▁duck	-3507
▁feat	-3508
▁jerk	-3509
▁near	-3510
▁pimp	-3511
▁rise	-3512
▁rode	-3513
▁tale	-3514
▁tall	-3515
▁twin	-3516
ground	-3517
lights	-3518
sident	-3519
▁Blood	-3520
▁Hands	-3521
▁Heard	-3522
▁Lamar	-3523
▁Lambo	-3524
▁Ridin	-3525
▁Swear	-3526
▁brand	-3527
▁couch	-3528
▁fiend	-3529
▁gradu	-3530
▁knees	-3531
▁langu	-3532
▁medic	-3533
▁overd	-3534
▁rules	-3535
▁shall	-3536
▁surpr	-3537
▁teach	-3538
▁traff	-3539
▁views	-3540
▁weeke	-3541
▁Eminem	-3542
▁accept	-3543
▁bounce	-3544
▁lettin	-3545
▁missed	-3546
▁relate	-3547
▁slowly	-3548
▁tracks	-3549
motivate	-3550
pecially	-3551
▁collect	-3552
▁further	-3553
▁killers	-3554
▁throwin	-3555
▁whippin	-3556
▁witness	-3557
▁language	-3558
▁levitate	-3559
▁patience	-3560
▁soldiers	-3561
▁stressin	-3562
▁fulfillin	-3563
Is	-3564
So	-3565
so	-3566
wh	-3567
ya	-3568
▁▁	-3569
ami	-3570
nes	-3571
oup	-3572
pha	-3573
rit	-3574
▁En	-3575
▁ca	-3576
▁eh	-3577
airs	-3578
elly	-3579
idge	-3580
nies	-3581
roph	-3582
ston	-3583
▁Hol	-3584
▁Own	-3585
▁Pre	-3586
▁bud	-3587
▁cas	-3588
▁cow	-3589
▁lap	-3590
▁tax	-3591
▁tit	-3592
▁unf	-3593
▁vom	-3594
abble	-3595
cedes	-3596
ellin	-3597
essin	-3598
icago	-3599
iment	-3600
ixide	-3601
nessy	-3602
obble	-3603
▁Gang	-3604
▁Goin	-3605
▁Grab	-3606
▁Hall	-3607
▁Miss	-3608
▁Park	-3609
▁able	-3610
▁bomb	-3611
▁bone	-3612
▁clip	-3613
▁grip	-3614
▁lick	-3615
▁lock	-3616
▁mode	-3617
▁note	-3618
▁poor	-3619
▁pred	-3620
▁race	-3621
▁shin	-3622
▁terr	-3623
▁ting	-3624
arried	-3625
ensive	-3626
ically	-3627
ortion	-3628
resent	-3629
▁Bible	-3630
▁Dream	-3631
▁Going	-3632
▁Shout	-3633
▁Stand	-3634
▁Whole	-3635
▁above	-3636
▁angry	-3637
▁appro	-3638
▁claim	-3639
▁coupe	-3640
▁creat	-3641
▁cryin	-3642
▁eatin	-3643
▁grade	-3644
▁hatin	-3645
▁ignor	-3646
▁insec	-3647
▁jewel	-3648
▁lovin	-3649
▁sides	-3650
▁slept	-3651
▁squad	-3652
▁stret	-3653
▁stunt	-3654
▁weren	-3655
Alright	-3656
▁Lately	-3657
▁Loving	-3658
▁Things	-3659
▁asleep	-3660
▁became	-3661
▁checks	-3662
▁choice	-3663
▁faster	-3664
▁master	-3665
▁moving	-3666
▁sittin	-3667
▁sudden	-3668
▁victim	-3669
▁Chicago	-3670
▁alcohol	-3671
▁ashamed	-3672
▁forward	-3673
▁killing	-3674
▁serious	-3675
▁service	-3676
▁startin	-3677
▁Mercedes	-3678
▁Whatever	-3679
▁neighbors	-3680
▁motherfuck	-3681
▁neighborhood	-3682
ags	-3683
aws	-3684
com	-3685
inc	-3686
izz	-3687
rog	-3688
rup	-3689
uce	-3690
▁hi	-3691
▁pu	-3692
Time	-3693
aker	-3694
form	-3695
ican	-3696
iled	-3697
oint	-3698
real	-3699
reci	-3700
vest	-3701
▁201	-3702
▁Ant	-3703
▁Cal	-3704
▁Cou	-3705
▁Mix	-3706
▁Mon	-3707
▁Nas	-3708
▁Rem	-3709
▁coc	-3710
▁deb	-3711
▁div	-3712
▁gir	-3713
▁hor	-3714
▁inv	-3715
▁owe	-3716
▁tow	-3717
▁val	-3718
arant	-3719
ature	-3720
icted	-3721
lenty	-3722
vered	-3723
▁East	-3724
▁Stre	-3725
▁Wish	-3726
▁buck	-3727
▁capt	-3728
▁cock	-3729
▁dude	-3730
▁ease	-3731
▁haha	-3732
▁lane	-3733
▁opin	-3734
▁sacr	-3735
▁tatt	-3736
▁zoom	-3737
ateful	-3738
▁Bring	-3739
▁Check	-3740
▁Livin	-3741
▁Music	-3742
▁Pride	-3743
▁Uncle	-3744
▁apple	-3745
▁blast	-3746
▁brown	-3747
▁exist	-3748
▁false	-3749
▁given	-3750
▁haunt	-3751
▁hella	-3752
▁knife	-3753
▁risin	-3754
▁serve	-3755
▁toast	-3756
▁tough	-3757
▁trunk	-3758
▁vomit	-3759
▁wheel	-3760
▁wound	-3761
▁Martin	-3762
▁Rollie	-3763
▁Runnin	-3764
▁Twenty	-3765
▁acting	-3766
▁advice	-3767
▁dinner	-3768
▁dissin	-3769
▁hearts	-3770
▁profit	-3771
▁showin	-3772
▁sister	-3773
▁starin	-3774
▁wasted	-3775
▁company	-3776
▁concept	-3777
▁connect	-3778
▁countin	-3779
▁destroy	-3780
▁emotion	-3781
▁exactly	-3782
▁percent	-3783
▁product	-3784
▁somehow	-3785
▁traffic	-3786
▁finished	-3787
▁watching	-3788
▁addiction	-3789
▁blessings	-3790
▁recognize	-3791
▁shoulders	-3792
▁confidence	-3793
Bl	-3794
Sl	-3795
bs	-3796
mo	-3797
ri	-3798
we	-3799
iot	-3800
nah	-3801
rey	-3802
ris	-3803
yah	-3804
▁50	-3805
▁Da	-3806
▁Je	-3807
▁Ob	-3808
▁TE	-3809
▁Us	-3810
▁fo	-3811
Bron	-3812
Take	-3813
enny	-3814
kers	-3815
ming	-3816
ring	-3817
ssip	-3818
umin	-3819
▁Ayo	-3820
▁Her	-3821
▁Ind	-3822
▁Set	-3823
▁Six	-3824
▁Tom	-3825
▁bal	-3826
▁bes	-3827
▁equ	-3828
▁lad	-3829
▁lip	-3830
▁muh	-3831
▁pin	-3832
▁pla	-3833
▁sof	-3834
▁ugh	-3835
Ville	-3836
iends	-3837
iggle	-3838
▁Cash	-3839
▁Find	-3840
▁Gave	-3841
▁Haha	-3842
▁Into	-3843
▁Move	-3844
▁Part	-3845
▁Past	-3846
▁Peek	-3847
▁Rest	-3848
▁Ride	-3849
▁bear	-3850
▁bend	-3851
▁cult	-3852
▁dogs	-3853
▁earn	-3854
▁fate	-3855
▁held	-3856
▁hook	-3857
▁onto	-3858
▁proc	-3859
▁seed	-3860
▁stab	-3861
▁tree	-3862
▁tune	-3863
▁vill	-3864
cience	-3865
dollar	-3866
etroit	-3867
▁Funny	-3868
▁Satan	-3869
▁Shoot	-3870
▁argue	-3871
▁bills	-3872
▁candy	-3873
▁flash	-3874
▁forth	-3875
▁girlf	-3876
▁hated	-3877
▁prime	-3878
▁racks	-3879
▁youth	-3880
initely	-3881
ountain	-3882
▁artist	-3883
▁babies	-3884
▁bitter	-3885
▁celebr	-3886
▁govern	-3887
▁holler	-3888
▁kicked	-3889
▁prison	-3890
▁repeat	-3891
▁sacrif	-3892
▁sevent	-3893
▁steady	-3894
▁threat	-3895
▁verses	-3896
▁Atlanta	-3897
▁Believe	-3898
▁Forever	-3899
▁culture	-3900
▁excuses	-3901
▁fingers	-3902
▁impress	-3903
▁mansion	-3904
▁silence	-3905
▁someday	-3906
▁stories	-3907
▁success	-3908
▁Hennessy	-3909
▁bathroom	-3910
▁offended	-3911
▁switchin	-3912
▁yesterday	-3913
'—	-3914
, 	-3915
AT	-3916
If	-3917
zi	-3918
abe	-3919
aow	-3920
bit	-3921
gun	-3922
har	-3923
ism	-3924
ium	-3925
net	-3926
ott	-3927
rat	-3928
rin	-3929
▁Su	-3930
▁gn	-3931
▁hm	-3932
▁je	-3933
▁ug	-3934
Lord	-3935
bbed	-3936
eeze	-3937
emon	-3938
etty	-3939
four	-3940
illy	-3941
lect	-3942
lesh	-3943
orty	-3944
year	-3945
▁Bea	-3946
▁Hal	-3947
▁Tex	-3948
▁agg	-3949
▁cat	-3950
▁joy	-3951
▁lif	-3952
▁mid	-3953
▁ter	-3954
▁vib	-3955
ealth	-3956
hetto	-3957
iling	-3958
itney	-3959
ocked	-3960
ograp	-3961
pping	-3962
▁Burn	-3963
▁Dear	-3964
▁Didn	-3965
▁Help	-3966
▁Jack	-3967
▁Nike	-3968
▁Pour	-3969
▁Star	-3970
▁York	-3971
▁bags	-3972
▁brag	-3973
▁bros	-3974
▁calm	-3975
▁clap	-3976
▁corp	-3977
▁dust	-3978
▁lady	-3979
▁mass	-3980
▁opps	-3981
▁situ	-3982
▁snap	-3983
▁upon	-3984
▁vide	-3985
ifteen	-3986
iption	-3987
selves	-3988
▁Homie	-3989
▁James	-3990
▁anger	-3991
▁chase	-3992
▁daily	-3993
▁earth	-3994
▁enemy	-3995
▁facts	-3996
▁field	-3997
▁froze	-3998
▁hidin	-3999
▁polit	-4000
▁psych	-4001
▁smart	-4002
▁stole	-4003
▁tempt	-4004
▁waves	-4005
arantee	-4006
henomen	-4007
ination	-4008
▁Feelin	-4009
▁LeBron	-4010
▁Prince	-4011
▁Tellin	-4012
▁affect	-4013
▁bodies	-4014
▁butter	-4015
▁coffin	-4016
▁commit	-4017
▁coulda	-4018
▁having	-4019
▁hustle	-4020
▁kickin	-4021
▁normal	-4022
▁plenty	-4023
▁preach	-4024
▁resent	-4025
▁showed	-4026
▁Detroit	-4027
▁Looking	-4028
▁Watchin	-4029
▁chillin	-4030
▁curtain	-4031
▁imagine	-4032
▁married	-4033
▁neither	-4034
▁parties	-4035
▁playing	-4036
▁support	-4037
▁weekend	-4038
▁whether	-4039
▁worried	-4040
▁champion	-4041
▁hundreds	-4042
▁religion	-4043
▁sleeping	-4044
▁embarrass	-4045
▁listening	-4046
Sw	-4047
hh	-4048
tr	-4049
But	-4050
alk	-4051
hem	-4052
hew	-4053
joy	-4054
lax	-4055
nel	-4056
nse	-4057
sin	-4058
sit	-4059
top	-4060
▁'9	-4061
▁GO	-4062
▁Op	-4063
▁cy	-4064
▁pe	-4065
Team	-4066
Work	-4067
atur	-4068
bach	-4069
chen	-4070
ding	-4071
erry	-4072
ilar	-4073
iler	-4074
ivid	-4075
mory	-4076
onna	-4077
ords	-4078
ques	-4079
what	-4080
▁Ask	-4081
▁Bur	-4082
▁Cry	-4083
▁Dad	-4084
▁Old	-4085
▁Pat	-4086
▁Reg	-4087
▁dun	-4088
▁exc	-4089
▁mer	-4090
▁rub	-4091
▁sug	-4092
▁voc	-4093
ables	-4094
assed	-4095
iforn	-4096
ipper	-4097
ledge	-4098
stant	-4099
uggin	-4100
▁Ball	-4101
▁Does	-4102
▁Mond	-4103
▁Rick	-4104
▁Step	-4105
▁Walk	-4106
▁Wasn	-4107
▁aunt	-4108
▁boom	-4109
▁card	-4110
▁coat	-4111
▁cope	-4112
▁diff	-4113
▁dive	-4114
▁drip	-4115
▁fant	-4116
▁idea	-4117
▁load	-4118
▁lust	-4119
▁mans	-4120
▁page	-4121
▁sens	-4122
▁slit	-4123
▁stat	-4124
▁tint	-4125
▁toes	-4126
▁wash	-4127
▁wine	-4128
otions	-4129
sessed	-4130
thirty	-4131
uckers	-4132
▁House	-4133
▁beast	-4134
▁cards	-4135
▁crown	-4136
▁drama	-4137
▁early	-4138
▁fadin	-4139
▁flyin	-4140
▁forty	-4141
▁greed	-4142
▁jeans	-4143
▁karma	-4144
▁match	-4145
▁minds	-4146
▁relax	-4147
▁score	-4148
▁slatt	-4149
▁waist	-4150
ermaine	-4151
▁Inside	-4152
▁attack	-4153
▁colors	-4154
▁compet	-4155
▁faggot	-4156
▁health	-4157
▁instru	-4158
▁jumped	-4159
▁leaves	-4160
▁memory	-4161
▁pissed	-4162
▁player	-4163
▁swerve	-4164
▁voices	-4165
▁wealth	-4166
▁wearin	-4167
▁wiggle	-4168
▁Hundred	-4169
▁bringin	-4170
▁fightin	-4171
▁leaving	-4172
▁teacher	-4173
▁therapy	-4174
henomenal	-4175
▁Californ	-4176
▁Homixide	-4177
▁birthday	-4178
▁building	-4179
▁finessin	-4180
▁conscience	-4181
▁government	-4182
▁intentions	-4183
ih	-4184
ox	-4185
?),	-4186
Brr	-4187
Pac	-4188
box	-4189
die	-4190
dom	-4191
gie	-4192
got	-4193
ils	-4194
nch	-4195
▁(*	-4196
▁12	-4197
▁AK	-4198
▁ni	-4199
Bang	-4200
Come	-4201
Know	-4202
Shit	-4203
When	-4204
anda	-4205
bang	-4206
ette	-4207
orge	-4208
reck	-4209
step	-4210
ummy	-4211
▁App	-4212
▁Des	-4213
▁Har	-4214
▁Hoo	-4215
▁Ill	-4216
▁Mal	-4217
▁Pol	-4218
▁arm	-4219
▁bae	-4220
▁eas	-4221
▁hea	-4222
▁hmm	-4223
▁map	-4224
▁non	-4225
▁pad	-4226
▁rat	-4227
▁rob	-4228
▁toe	-4229
acher	-4230
ching	-4231
itude	-4232
lines	-4233
posed	-4234
state	-4235
▁Dave	-4236
▁Eric	-4237
▁Face	-4238
▁Fack	-4239
▁Half	-4240
▁Hand	-4241
▁Nate	-4242
▁Wake	-4243
▁coke	-4244
▁cook	-4245
▁flag	-4246
▁gain	-4247
▁harm	-4248
▁pipe	-4249
▁rage	-4250
▁rout	-4251
▁rubb	-4252
▁shad	-4253
▁slut	-4254
▁snow	-4255
▁suit	-4256
▁wood	-4257
ouston	-4258
verage	-4259
▁Texas	-4260
▁Under	-4261
▁bones	-4262
▁click	-4263
▁drank	-4264
▁exper	-4265
▁fists	-4266
▁flesh	-4267
▁focus	-4268
▁goose	-4269
▁grass	-4270
▁guide	-4271
▁influ	-4272
▁lived	-4273
▁moved	-4274
▁nerve	-4275
▁oppos	-4276
▁rever	-4277
▁revol	-4278
▁slice	-4279
▁smash	-4280
▁stack	-4281
▁trade	-4282
▁truly	-4283
▁upset	-4284
▁whose	-4285
▁Couple	-4286
▁Double	-4287
▁contin	-4288
▁ghetto	-4289
▁opened	-4290
▁opport	-4291
▁packed	-4292
▁remain	-4293
▁rockin	-4294
▁stayed	-4295
▁talked	-4296
▁temper	-4297
motional	-4298
▁appreci	-4299
▁bedroom	-4300
▁chopper	-4301
▁cocaine	-4302
▁discuss	-4303
▁figured	-4304
▁funeral	-4305
▁kitchen	-4306
▁leather	-4307
▁obvious	-4308
▁outcast	-4309
▁present	-4310
▁shooter	-4311
▁trigger	-4312
▁violent	-4313
▁Everyone	-4314
▁Probably	-4315
▁confused	-4316
▁decision	-4317
▁innocent	-4318
▁apologize	-4319
▁convinced	-4320
▁depression	-4321
▁phenomenal	-4322
fr	-4323
Yuh	-4324
Yup	-4325
bor	-4326
ien	-4327
off	-4328
oph	-4329
ped	-4330
ral	-4331
tes	-4332
toe	-4333
▁Ab	-4334
▁DJ	-4335
▁Mc	-4336
▁av	-4337
Just	-4338
ando	-4339
apse	-4340
athy	-4341
beat	-4342
cean	-4343
gage	-4344
icin	-4345
ngth	-4346
ompl	-4347
rage	-4348
▁Bay	-4349
▁Bob	-4350
▁Bow	-4351
▁Cam	-4352
▁Day	-4353
▁Eat	-4354
▁Hii	-4355
▁Jac	-4356
▁Mur	-4357
▁Ray	-4358
▁Str	-4359
▁bor	-4360
▁maj	-4361
▁mob	-4362
▁nin	-4363
▁odd	-4364
▁pew	-4365
▁pil	-4366
▁pun	-4367
▁row	-4368
▁rum	-4369
▁sim	-4370
▁tex	-4371
▁tre	-4372
Nigga	-4373
adays	-4374
bumps	-4375
illed	-4376
itter	-4377
raise	-4378
verty	-4379
ville	-4380
▁Born	-4381
▁Easy	-4382
▁Laug	-4383
▁Mile	-4384
▁Seen	-4385
▁Stay	-4386
▁also	-4387
▁bers	-4388
▁chka	-4389
▁dear	-4390
▁goal	-4391
▁holy	-4392
▁mult	-4393
▁pair	-4394
▁pant	-4395
▁rece	-4396
▁rose	-4397
▁sand	-4398
▁ship	-4399
▁ties	-4400
▁ugly	-4401
▁zero	-4402
alyzed	-4403
iction	-4404
▁Crazy	-4405
▁Glock	-4406
▁Hills	-4407
▁Jacks	-4408
▁Mercy	-4409
▁Rolls	-4410
▁Skrrt	-4411
▁Stuck	-4412
▁Trust	-4413
▁buddy	-4414
▁burnt	-4415
▁clock	-4416
▁descr	-4417
▁event	-4418
▁image	-4419
▁issue	-4420
▁jokes	-4421
▁layin	-4422
▁likes	-4423
▁loves	-4424
▁offic	-4425
▁rocks	-4426
▁scars	-4427
▁swing	-4428
istance	-4429
▁Grammy	-4430
▁Monday	-4431
▁Scream	-4432
▁Wouldn	-4433
▁action	-4434
▁brains	-4435
▁burned	-4436
▁cheese	-4437
▁circle	-4438
▁defeat	-4439
▁doctor	-4440
▁filled	-4441
▁gentle	-4442
▁gossip	-4443
▁hittin	-4444
▁hungry	-4445
▁pullin	-4446
▁secret	-4447
▁slaves	-4448
▁snatch	-4449
▁square	-4450
▁thinks	-4451
▁travel	-4452
▁winner	-4453
▁wobble	-4454
▁yellin	-4455
▁Houston	-4456
▁Maybach	-4457
▁artists	-4458
▁balance	-4459
▁berserk	-4460
▁classic	-4461
▁crooked	-4462
▁crumble	-4463
▁justice	-4464
▁machine	-4465
▁numbers	-4466
▁revenge	-4467
▁secrets	-4468
▁selfish	-4469
▁session	-4470
▁sixteen	-4471
▁stopped	-4472
▁suicide	-4473
▁surface	-4474
▁thirsty	-4475
▁villain	-4476
▁whoever	-4477
▁windows	-4478
▁Jermaine	-4479
▁Peekaboo	-4480
▁approach	-4481
▁backyard	-4482
▁mountain	-4483
▁realized	-4484
▁tripping	-4485
▁wherever	-4486
▁controlla	-4487
▁disappear	-4488
▁entertain	-4489
▁guarantee	-4490
▁heartless	-4491
▁moonlight	-4492
▁represent	-4493
▁California	-4494
▁girlfriend	-4495
00	-4496
Pl	-4497
Ya	-4498
ca	-4499
fo	-4500
kn	-4501
▁7	-4502
ACK	-4503
Got	-4504
Pop	-4505
Ugh	-4506
ams	-4507
gic	-4508
ley	-4509
luh	-4510
nis	-4511
pet	-4512
ups	-4513
▁("	-4514
▁Ge	-4515
▁OV	-4516
▁du	-4517
Gang	-4518
Love	-4519
Nope	-4520
aces	-4521
ades	-4522
aret	-4523
chka	-4524
cise	-4525
eeve	-4526
ific	-4527
ints	-4528
kaze	-4529
life	-4530
olks	-4531
oops	-4532
seng	-4533
tery	-4534
ults	-4535
urry	-4536
view	-4537
wind	-4538
zing	-4539
▁Bar	-4540
▁Bot	-4541
▁Col	-4542
▁Cor	-4543
▁Dro	-4544
▁End	-4545
▁Fin	-4546
▁Hip	-4547
▁Lot	-4548
▁Med	-4549
▁Mot	-4550
▁Our	-4551
▁Rep	-4552
▁Sex	-4553
▁arr	-4554
▁cig	-4555
▁dev	-4556
▁due	-4557
▁rib	-4558
▁ske	-4559
▁tot	-4560
▁und	-4561
▁uoy	-4562
▁wow	-4563
arden	-4564
ckers	-4565
erest	-4566
gnant	-4567
haust	-4568
imate	-4569
inger	-4570
ortin	-4571
three	-4572
ucket	-4573
ushed	-4574
using	-4575
▁Bigg	-4576
▁GOAT	-4577
▁Home	-4578
▁Illa	-4579
▁Lift	-4580
▁Nice	-4581
▁Pain	-4582
▁Paul	-4583
▁Very	-4584
▁army	-4585
▁coco	-4586
▁craw	-4587
▁dare	-4588
▁fort	-4589
▁math	-4590
▁nuts	-4591
▁peep	-4592
▁pink	-4593
▁poet	-4594
▁porn	-4595
▁prof	-4596
▁pure	-4597
▁repl	-4598
▁reve	-4599
▁rope	-4600
▁sour	-4601
▁tick	-4602
itched	-4603
ograph	-4604
umblin	-4605
▁About	-4606
▁HiiiP	-4607
▁Momma	-4608
▁Order	-4609
▁behav	-4610
▁blond	-4611
▁dealt	-4612
▁domin	-4613
▁embra	-4614
▁enjoy	-4615
▁flame	-4616
▁grace	-4617
▁paran	-4618
▁punch	-4619
▁racin	-4620
▁river	-4621
▁shove	-4622
▁steps	-4623
▁syrup	-4624
▁toppy	-4625
▁uncle	-4626
▁upper	-4627
▁whore	-4628
▁works	-4629
amikaze	-4630
ressive	-4631
▁Higher	-4632
▁Lights	-4633
▁Matter	-4634
▁across	-4635
▁ballin	-4636
▁bridge	-4637
▁bucket	-4638
▁chaser	-4639
▁clowns	-4640
▁credit	-4641
▁dealin	-4642
▁duckin	-4643
▁genius	-4644
▁granny	-4645
▁headed	-4646
▁heaven	-4647
▁jumpin	-4648
▁keepin	-4649
▁lesson	-4650
▁retard	-4651
▁season	-4652
▁stayin	-4653
▁suffer	-4654
▁twelve	-4655
▁within	-4656
▁writin	-4657
▁wrongs	-4658
aughters	-4659
▁Anybody	-4660
▁Whitney	-4661
▁Without	-4662
▁account	-4663
▁answers	-4664
▁certain	-4665
▁content	-4666
▁covered	-4667
▁flippin	-4668
▁focused	-4669
▁foreign	-4670
▁granted	-4671
▁himself	-4672
▁jewelry	-4673
▁patient	-4674
▁regular	-4675
▁respons	-4676
▁scratch	-4677
▁station	-4678
▁wrapped	-4679
▁Motivate	-4680
▁emotions	-4681
▁happenin	-4682
▁listenin	-4683
▁standing	-4684
▁strapped	-4685
▁surround	-4686
▁champagne	-4687
▁depressed	-4688
▁paralyzed	-4689
▁definitely	-4690
▁goosebumps	-4691
▁relationship	-4692
▁motherfucking	-4693
Tr	-4694
XL	-4695
gr	-4696
ij	-4697
ky	-4698
ti	-4699
bop	-4700
den	-4701
oda	-4702
pin	-4703
raw	-4704
sof	-4705
you	-4706
▁Fa	-4707
▁Na	-4708
▁fi	-4709
Keep	-4710
Only	-4711
aunt	-4712
cita	-4713
empl	-4714
epar	-4715
fall	-4716
give	-4717
imal	-4718
immy	-4719
izin	-4720
mers	-4721
mind	-4722
port	-4723
sect	-4724
unta	-4725
usin	-4726
▁Buy	-4727
▁Cut	-4728
▁Dis	-4729
▁Flo	-4730
▁Fly	-4731
▁Gun	-4732
▁Has	-4733
▁Jun	-4734
▁Lea	-4735
▁Sec	-4736
▁Tod	-4737
▁Ugh	-4738
▁Ven	-4739
▁Wra	-4740
▁aud	-4741
▁awk	-4742
▁dod	-4743
▁dre	-4744
▁ego	-4745
▁gay	-4746
▁hah	-4747
▁imm	-4748
▁jaw	-4749
▁lon	-4750
▁lun	-4751
▁mel	-4752
▁net	-4753
▁por	-4754
▁que	-4755
▁ric	-4756
▁saf	-4757
▁tan	-4758
▁tri	-4759
acesh	-4760
acket	-4761
aline	-4762
alkin	-4763
iggin	-4764
neath	-4765
nigga	-4766
oulev	-4767
versy	-4768
▁Benj	-4769
▁Cart	-4770
▁Char	-4771
▁Fall	-4772
▁Fool	-4773
▁Live	-4774
▁Once	-4775
▁Pick	-4776
▁Rain	-4777
▁Rose	-4778
▁Sher	-4779
▁Slow	-4780
▁Went	-4781
▁atta	-4782
▁beam	-4783
▁bruh	-4784
▁bury	-4785
▁crap	-4786
▁dece	-4787
▁dice	-4788
▁eche	-4789
▁feds	-4790
▁fist	-4791
▁idol	-4792
▁jack	-4793
▁liar	-4794
▁mena	-4795
▁mink	-4796
▁mour	-4797
▁pace	-4798
▁plug	-4799
▁prep	-4800
▁shed	-4801
▁tied	-4802
▁vest	-4803
▁weep	-4804
▁yard	-4805
opping	-4806
perate	-4807
stairs	-4808
▁Askin	-4809
▁Eight	-4810
▁Flash	-4811
▁Kelly	-4812
▁Quiet	-4813
▁Range	-4814
▁Spend	-4815
▁Water	-4816
▁drums	-4817
▁fence	-4818
▁fired	-4819
▁gimme	-4820
▁gives	-4821
▁group	-4822
▁hypoc	-4823
▁lobby	-4824
▁lucky	-4825
▁magaz	-4826
▁mixed	-4827
▁naked	-4828
▁petty	-4829
▁shift	-4830
▁sober	-4831
▁south	-4832
▁spark	-4833
▁traum	-4834
amacita	-4835
ception	-4836
▁Couldn	-4837
▁Drizzy	-4838
▁Waitin	-4839
▁albums	-4840
▁auntie	-4841
▁beauty	-4842
▁beside	-4843
▁charge	-4844
▁copped	-4845
▁eighty	-4846
▁excuse	-4847
▁hearin	-4848
▁invest	-4849
▁ironic	-4850
▁ladies	-4851
▁latest	-4852
▁losing	-4853
▁moanin	-4854
▁prayed	-4855
▁return	-4856
▁shinin	-4857
▁shorty	-4858
▁sloppy	-4859
▁snitch	-4860
▁starts	-4861
▁strike	-4862
Marshall	-4863
oulevard	-4864
renaline	-4865
▁Another	-4866
▁accompl	-4867
▁attract	-4868
▁awkward	-4869
▁breakin	-4870
▁concert	-4871
▁crossed	-4872
▁dancing	-4873
▁distant	-4874
▁echelon	-4875
▁exhaust	-4876
▁glasses	-4877
▁laughin	-4878
▁nightma	-4879
▁panties	-4880
▁release	-4881
▁sitting	-4882
▁spacesh	-4883
▁strange	-4884
▁trailer	-4885
▁twisted	-4886
▁watched	-4887
▁welcome	-4888
▁workout	-4889
▁writing	-4890
▁behavior	-4891
▁controll	-4892
▁drowning	-4893
▁practice	-4894
▁searchin	-4895
▁vacation	-4896
▁Christian	-4897
▁conscious	-4898
▁daughters	-4899
▁generation	-4900
▁protection	-4901
▁controversy	-4902
▁opportunity	-4903
*)	-4904
6,	-4905
Be	-4906
ET	-4907
ID	-4908
ev	-4909
uc	-4910
Che	-4911
Dot	-4912
Out	-4913
Sha	-4914
Wow	-4915
Yes	-4916
ati	-4917
bed	-4918
dam	-4919
iah	-4920
isf	-4921
itz	-4922
nie	-4923
oos	-4924
oto	-4925
run	-4926
ste	-4927
yes	-4928
▁DM	-4929
▁hy	-4930
Down	-4931
Hell	-4932
Than	-4933
ager	-4934
cuse	-4935
dest	-4936
egas	-4937
enin	-4938
eter	-4939
gine	-4940
ians	-4941
iant	-4942
iece	-4943
ifth	-4944
look	-4945
opes	-4946
over	-4947
rent	-4948
ties	-4949
utch	-4950
vert	-4951
▁21,	-4952
▁Ali	-4953
▁Ham	-4954
▁Mem	-4955
▁Pay	-4956
▁Pha	-4957
▁Ron	-4958
▁Sam	-4959
▁Sav	-4960
▁Use	-4961
▁abs	-4962
▁anx	-4963
▁bum	-4964
▁fem	-4965
▁gar	-4966
▁obl	-4967
▁pig	-4968
▁sea	-4969
▁tor	-4970
▁typ	-4971
▁unc	-4972
▁ven	-4973
▁wed	-4974
Right	-4975
alley	-4976
anish	-4977
ardon	-4978
icult	-4979
idden	-4980
ortal	-4981
oured	-4982
sence	-4983
skrrt	-4984
under	-4985
urday	-4986
▁Anna	-4987
▁Care	-4988
▁Cold	-4989
▁Dame	-4990
▁Fake	-4991
▁Flex	-4992
▁Hill	-4993
▁Holy	-4994
▁Nope	-4995
▁Nori	-4996
▁Whoa	-4997
▁Word	-4998
▁amen	-4999
▁band	-5000
▁bene	-5001
▁bike	-5002
▁boun	-5003
▁cart	-5004
▁chip	-5005
▁debt	-5006
▁horn	-5007
▁hype	-5008
▁join	-5009
▁laid	-5010
▁lake	-5011
▁lawy	-5012
▁mami	-5013
▁mask	-5014
▁pile	-5015
▁prov	-5016
▁skip	-5017
▁thug	-5018
▁whis	-5019
▁wipe	-5020
▁wire	-5021
ighest	-5022
ippers	-5023
levant	-5024
ration	-5025
renade	-5026
resher	-5027
strate	-5028
▁Chain	-5029
▁Knock	-5030
▁Kunta	-5031
▁Metro	-5032
▁North	-5033
▁Scott	-5034
▁Sorry	-5035
▁Takin	-5036
▁Vegas	-5037
▁aside	-5038
▁aware	-5039
▁belly	-5040
▁blink	-5041
▁bored	-5042
▁chair	-5043
▁clips	-5044
▁clout	-5045
▁confl	-5046
▁conqu	-5047
▁defin	-5048
▁dying	-5049
▁force	-5050
▁grrah	-5051
▁heads	-5052
▁ideas	-5053
▁loyal	-5054
▁lunch	-5055
▁major	-5056
▁ocean	-5057
▁reply	-5058
▁rings	-5059
▁scare	-5060
▁schol	-5061
▁shook	-5062
▁skill	-5063
▁toxic	-5064
▁trans	-5065
▁vocal	-5066
urities	-5067
▁Chanel	-5068
▁Living	-5069
▁button	-5070
▁coward	-5071
▁crying	-5072
▁hahaha	-5073
▁models	-5074
▁office	-5075
▁option	-5076
▁overhe	-5077
▁parade	-5078
▁praise	-5079
▁report	-5080
▁ripped	-5081
▁screen	-5082
▁search	-5083
▁servin	-5084
▁silent	-5085
▁triple	-5086
▁unless	-5087
ulations	-5088
▁amazing	-5089
▁attempt	-5090
▁blacker	-5091
▁command	-5092
▁counter	-5093
▁critics	-5094
▁dreamin	-5095
▁introdu	-5096
▁matters	-5097
▁possess	-5098
▁respond	-5099
▁shootin	-5100
▁speakin	-5101
▁spendin	-5102
▁stripes	-5103
▁stumble	-5104
▁tickets	-5105
scription	-5106
▁Saturday	-5107
▁accident	-5108
▁breathin	-5109
▁comments	-5110
▁complete	-5111
▁features	-5112
▁inspired	-5113
▁interest	-5114
▁opposite	-5115
▁pregnant	-5116
▁projects	-5117
▁strength	-5118
▁happiness	-5119
▁influence	-5120
▁president	-5121
▁situation	-5122
▁wonderful	-5123
▁Hallelujah	-5124
▁adrenaline	-5125
▁assistance	-5126
▁resentment	-5127
"?	-5128
5,	-5129
80	-5130
Me	-5131
OV	-5132
Ow	-5133
Wh	-5134
Ye	-5135
gy	-5136
po	-5137
▁–	-5138
Hmm	-5139
Hoo	-5140
Lit	-5141
Mhm	-5142
WeR	-5143
arc	-5144
bet	-5145
din	-5146
eem	-5147
fly	-5148
gen	-5149
hys	-5150
lem	-5151
new	-5152
pee	-5153
sha	-5154
ugh	-5155
wor	-5156
▁.4	-5157
▁40	-5158
▁Ke	-5159
▁Ly	-5160
▁Ot	-5161
▁ay	-5162
Brrt	-5163
Fack	-5164
High	-5165
Tell	-5166
girl	-5167
iate	-5168
iday	-5169
ikki	-5170
ilty	-5171
lers	-5172
oWeR	-5173
okay	-5174
reme	-5175
seat	-5176
some	-5177
umph	-5178
▁Bas	-5179
▁Cap	-5180
▁Dav	-5181
▁Dot	-5182
▁Fam	-5183
▁Gen	-5184
▁Lee	-5185
▁Mag	-5186
▁OVO	-5187
▁Ram	-5188
▁Rec	-5189
▁TEC	-5190
▁Wat	-5191
▁Win	-5192
▁ate	-5193
▁eff	-5194
▁fil	-5195
▁lau	-5196
▁len	-5197
▁sil	-5198
▁sla	-5199
▁wah	-5200
▁wha	-5201
▁wri	-5202
ances	-5203
antic	-5204
ciety	-5205
epend	-5206
etime	-5207
iliar	-5208
known	-5209
minis	-5210
odies	-5211
oking	-5212
ontin	-5213
proof	-5214
▁Bend	-5215
▁Bill	-5216
▁Blue	-5217
▁Bull	-5218
▁Bust	-5219
▁Dead	-5220
▁Fast	-5221
▁Kids	-5222
▁Mind	-5223
▁Phil	-5224
▁Pimp	-5225
▁Side	-5226
▁Twin	-5227
▁Wall	-5228
▁Woke	-5229
▁bail	-5230
▁belt	-5231
▁bond	-5232
▁brrt	-5233
▁comb	-5234
▁dang	-5235
▁ears	-5236
▁flat	-5237
▁gyal	-5238
▁laws	-5239
▁mani	-5240
▁meta	-5241
▁odds	-5242
▁ours	-5243
▁peel	-5244
▁prem	-5245
▁prog	-5246
▁shar	-5247
▁slam	-5248
▁swee	-5249
▁tank	-5250
▁thin	-5251
▁vent	-5252
antage	-5253
ashion	-5254
atives	-5255
cation	-5256
ercise	-5257
icious	-5258
senger	-5259
should	-5260
▁Angel	-5261
▁Bobby	-5262
▁Comin	-5263
▁Gimme	-5264
▁Henny	-5265
▁Junya	-5266
▁Mexic	-5267
▁Mommy	-5268
▁Nails	-5269
▁Ready	-5270
▁Screw	-5271
▁Those	-5272
▁Treat	-5273
▁agree	-5274
▁alley	-5275
▁annoy	-5276
▁belie	-5277
▁buyin	-5278
▁dawgs	-5279
▁enter	-5280
▁fifth	-5281
▁folks	-5282
▁guilt	-5283
▁hills	-5284
▁honor	-5285
▁hurry	-5286
▁lungs	-5287
▁media	-5288
▁model	-5289
▁notes	-5290
▁parts	-5291
▁pilot	-5292
▁plays	-5293
▁porch	-5294
▁separ	-5295
▁shell	-5296
▁sneak	-5297
▁sport	-5298
▁stake	-5299
▁storm	-5300
▁stove	-5301
▁swang	-5302
▁veins	-5303
▁weeks	-5304
▁wreck	-5305
itating	-5306
scratch	-5307
▁Sittin	-5308
▁Steady	-5309
▁Street	-5310
▁Though	-5311
▁Wraith	-5312
▁amount	-5313
▁arrest	-5314
▁asking	-5315
▁basket	-5316
▁beatin	-5317
▁bother	-5318
▁burnin	-5319
▁center	-5320
▁concer	-5321
▁deeper	-5322
▁design	-5323
▁freeze	-5324
▁kissin	-5325
▁nation	-5326
▁satisf	-5327
▁sheesh	-5328
▁sleeve	-5329
▁spread	-5330
▁stream	-5331
▁sucked	-5332
▁wantin	-5333
▁worked	-5334
▁Instead	-5335
▁Jackson	-5336
▁Outside	-5337
▁Spanish	-5338
▁checkin	-5339
▁crackin	-5340
▁defense	-5341
▁dressed	-5342
▁floatin	-5343
▁flowers	-5344
▁frontin	-5345
▁highest	-5346
▁knocked	-5347
▁opinion	-5348
▁reachin	-5349
▁regrets	-5350
▁reminis	-5351
▁Anything	-5352
▁Rockstar	-5353
▁Screamin	-5354
▁beginnin	-5355
▁consider	-5356
▁continue	-5357
▁lifetime	-5358
▁meditate	-5359
▁motivate	-5360
▁overdone	-5361
▁reaction	-5362
▁retarded	-5363
▁HiiiPoWeR	-5364
▁difficult	-5365
▁graduated	-5366
▁nighttime	-5367
▁sensitive	-5368
▁spaceship	-5369
▁surprised	-5370
▁definition	-5371
▁everywhere	-5372
▁comfortable	-5373
▁embarrassed	-5374
▁underground	-5375
▁prescription	-5376
'!	-5377
?!	-5378
Cl	-5379
MI	-5380
Sk	-5381
Up	-5382
ax	-5383
ga	-5384
oi	-5385
▁’	-5386
Ahh	-5387
arm	-5388
ask	-5389
awg	-5390
ept	-5391
ken	-5392
lam	-5393
lor	-5394
met	-5395
nal	-5396
nid	-5397
oon	-5398
ops	-5399
que	-5400
rer	-5401
sey	-5402
udy	-5403
ule	-5404
▁Cu	-5405
▁LA	-5406
▁OG	-5407
▁bi	-5408
▁fe	-5409
Give	-5410
They	-5411
Wait	-5412
angs	-5413
doot	-5414
ella	-5415
ened	-5416
gers	-5417
hers	-5418
hold	-5419
ided	-5420
iped	-5421
list	-5422
miss	-5423
oons	-5424
pent	-5425
shot	-5426
skin	-5427
uary	-5428
udes	-5429
▁Dar	-5430
▁Dun	-5431
▁Fre	-5432
▁Kid	-5433
▁Lay	-5434
▁Mis	-5435
▁Mob	-5436
▁Rel	-5437
▁Res	-5438
▁ach	-5439
▁flu	-5440
▁gee	-5441
▁ham	-5442
▁hug	-5443
▁hun	-5444
▁jud	-5445
▁lou	-5446
▁pon	-5447
▁pup	-5448
▁sor	-5449
▁unt	-5450
▁wif	-5451
anabe	-5452
astic	-5453
board	-5454
chool	-5455
doing	-5456
ences	-5457
hered	-5458
ibble	-5459
iding	-5460
ivity	-5461
ordin	-5462
phant	-5463
ppers	-5464
rench	-5465
ronic	-5466
style	-5467
uffin	-5468
watch	-5469
▁Aali	-5470
▁Bang	-5471
▁Both	-5472
▁Cong	-5473
▁Fill	-5474
▁JACK	-5475
▁Numb	-5476
▁Push	-5477
▁Quit	-5478
▁Self	-5479
▁Soon	-5480
▁Wave	-5481
▁aren	-5482
▁argu	-5483
▁boat	-5484
▁bold	-5485
▁bree	-5486
▁chor	-5487
▁clea	-5488
▁cong	-5489
▁curb	-5490
▁goat	-5491
▁guts	-5492
▁hosp	-5493
▁inna	-5494
▁jour	-5495
▁mail	-5496
▁neat	-5497
▁pity	-5498
▁plat	-5499
▁reme	-5500
▁shoe	-5501
▁vain	-5502
▁void	-5503
▁warm	-5504
▁west	-5505
▁wide	-5506
▁wonk	-5507
ctions	-5508
eakers	-5509
isions	-5510
isters	-5511
ivated	-5512
mental	-5513
▁Afric	-5514
▁Apple	-5515
▁Brain	-5516
▁Brown	-5517
▁Champ	-5518
▁Chubb	-5519
▁Drive	-5520
▁Girls	-5521
▁Grand	-5522
▁Seven	-5523
▁Women	-5524
▁arrog	-5525
▁avoid	-5526
▁award	-5527
▁beach	-5528
▁beans	-5529
▁beard	-5530
▁cheat	-5531
▁condo	-5532
▁crush	-5533
▁flaws	-5534
▁flood	-5535
▁fried	-5536
▁frust	-5537
▁glove	-5538
▁guard	-5539
▁hilar	-5540
▁liber	-5541
▁mines	-5542
▁molly	-5543
▁noise	-5544
▁ounce	-5545
▁payin	-5546
▁plead	-5547
▁proof	-5548
▁rough	-5549
▁route	-5550
▁shade	-5551
▁shock	-5552
▁skirt	-5553
▁stain	-5554
▁tooth	-5555
emption	-5556
entiles	-5557
plexion	-5558
raction	-5559
rophone	-5560
▁George	-5561
▁Johnny	-5562
▁Mexico	-5563
▁Middle	-5564
▁Rollin	-5565
▁Twelve	-5566
▁Walkin	-5567
▁circus	-5568
▁dancin	-5569
▁except	-5570
▁findin	-5571
▁freest	-5572
▁fright	-5573
▁frozen	-5574
▁growin	-5575
▁hoping	-5576
▁island	-5577
▁jacket	-5578
▁letter	-5579
▁loaded	-5580
▁metaph	-5581
▁multip	-5582
▁passin	-5583
▁phones	-5584
▁planet	-5585
▁potent	-5586
▁powder	-5587
▁rhymin	-5588
▁riding	-5589
▁safety	-5590
▁sheets	-5591
▁shower	-5592
▁snakes	-5593
▁stages	-5594
▁strang	-5595
▁surely	-5596
▁tatted	-5597
▁terror	-5598
▁valley	-5599
backyard	-5600
▁Aaliyah	-5601
▁Twitter	-5602
▁average	-5603
▁baggage	-5604
▁cameras	-5605
▁changin	-5606
▁checked	-5607
▁cigaret	-5608
▁degrees	-5609
▁dreamed	-5610
▁drippin	-5611
▁embrace	-5612
▁fifteen	-5613
▁figures	-5614
▁fortune	-5615
▁fresher	-5616
▁hardest	-5617
▁instead	-5618
▁parking	-5619
▁plottin	-5620
▁reverse	-5621
▁shallow	-5622
▁shoppin	-5623
▁stretch	-5624
▁treated	-5625
▁usually	-5626
▁version	-5627
▁wedding	-5628
▁written	-5629
specially	-5630
▁American	-5631
▁FaceTime	-5632
▁Flashing	-5633
▁Mamacita	-5634
▁Watanabe	-5635
▁addicted	-5636
▁ambition	-5637
▁attitude	-5638
▁constant	-5639
▁dominoes	-5640
▁function	-5641
▁grateful	-5642
▁honestly	-5643
▁hopeless	-5644
▁mentally	-5645
▁paranoid	-5646
▁preacher	-5647
▁promises	-5648
▁shooting	-5649
▁Somewhere	-5650
▁advantage	-5651
▁breathing	-5652
▁community	-5653
▁desperate	-5654
▁direction	-5655
▁hilarious	-5656
▁lifestyle	-5657
▁ourselves	-5658
▁overnight	-5659
▁possessed	-5660
▁aggressive	-5661
▁appreciate	-5662
▁eventually	-5663
▁microphone	-5664
▁revolution	-5665
.​	-5666
12	-5667
9,	-5668
Ho	-5669
NE	-5670
To	-5671
ja	-5672
si	-5673
▁{	-5674
'?"	-5675
God	-5676
Hah	-5677
asp	-5678
bey	-5679
cel	-5680
con	-5681
gan	-5682
gth	-5683
ker	-5684
mhm	-5685
naw	-5686
nic	-5687
reg	-5688
rel	-5689
rol	-5690
urs	-5691
zel	-5692
▁19	-5693
▁Ib	-5694
▁Ty	-5695
▁Wr	-5696
▁cu	-5697
▁eg	-5698
▁hu	-5699
▁ll	-5700
▁pa	-5701
▁um	-5702
Amen	-5703
Call	-5704
OVID	-5705
Skrr	-5706
Turn	-5707
Well	-5708
Whoa	-5709
agin	-5710
ales	-5711
anes	-5712
apin	-5713
arge	-5714
asty	-5715
bles	-5716
borg	-5717
eech	-5718
ends	-5719
fast	-5720
haps	-5721
hard	-5722
hets	-5723
hini	-5724
hony	-5725
iami	-5726
icks	-5727
ippy	-5728
llen	-5729
nage	-5730
oray	-5731
otin	-5732
rete	-5733
rove	-5734
test	-5735
ucka	-5736
unna	-5737
uted	-5738
work	-5739
▁200	-5740
▁Aud	-5741
▁Biz	-5742
▁Bon	-5743
▁Boo	-5744
▁Bro	-5745
▁Def	-5746
▁Del	-5747
▁Dem	-5748
▁Far	-5749
▁Ima	-5750
▁Jan	-5751
▁MCs	-5752
▁Mhm	-5753
▁Nat	-5754
▁Ric	-5755
▁Xan	-5756
▁ban	-5757
▁brr	-5758
▁eht	-5759
▁lim	-5760
▁lur	-5761
▁toy	-5762
▁tun	-5763
▁ult	-5764
Hello	-5765
Money	-5766
Watch	-5767
alled	-5768
andal	-5769
anity	-5770
arent	-5771
aters	-5772
bound	-5773
erate	-5774
ervin	-5775
essim	-5776
hetic	-5777
ocate	-5778
ondon	-5779
roken	-5780
sense	-5781
seven	-5782
stage	-5783
stein	-5784
stood	-5785
umpin	-5786
ushin	-5787
▁Best	-5788
▁Dogg	-5789
▁Fell	-5790
▁Grow	-5791
▁Holl	-5792
▁Mans	-5793
▁Open	-5794
▁Paid	-5795
▁Rich	-5796
▁Ross	-5797
▁Spot	-5798
▁Suck	-5799
▁Vers	-5800
▁bowl	-5801
▁conv	-5802
▁cray	-5803
▁cudd	-5804
▁drum	-5805
▁elev	-5806
▁envy	-5807
▁gate	-5808
▁hugs	-5809
▁irre	-5810
▁jets	-5811
▁knee	-5812
▁loss	-5813
▁milk	-5814
▁path	-5815
▁phys	-5816
▁role	-5817
▁seal	-5818
▁sore	-5819
▁symp	-5820
▁tone	-5821
▁wise	-5822
▁wore	-5823
▁wrap	-5824
Father	-5825
atches	-5826
atural	-5827
esteem	-5828
fected	-5829
fuckin	-5830
illion	-5831
omatic	-5832
uition	-5833
ustome	-5834
▁****,	-5835
▁Break	-5836
▁Bruce	-5837
▁COVID	-5838
▁Cause	-5839
▁Chris	-5840
▁Close	-5841
▁Coast	-5842
▁David	-5843
▁Doesn	-5844
▁Found	-5845
▁Haven	-5846
▁Light	-5847
▁Miami	-5848
▁Paris	-5849
▁Party	-5850
▁Santa	-5851
▁Seems	-5852
▁Sleep	-5853
▁Start	-5854
▁Today	-5855
▁Tried	-5856
▁Trump	-5857
▁appet	-5858
▁awake	-5859
▁below	-5860
▁bling	-5861
▁booty	-5862
▁coach	-5863
▁corny	-5864
▁drawn	-5865
▁etern	-5866
▁fairy	-5867
▁goals	-5868
▁honey	-5869
▁inner	-5870
▁lover	-5871
▁lying	-5872
▁marks	-5873
▁mommy	-5874
▁named	-5875
▁overs	-5876
▁princ	-5877
▁refle	-5878
▁savin	-5879
▁stock	-5880
▁stood	-5881
▁taken	-5882
▁tense	-5883
▁thous	-5884
▁tires	-5885
▁turns	-5886
▁vivid	-5887
▁whine	-5888
hundred	-5889
pective	-5890
▁Called	-5891
▁Forget	-5892
▁Future	-5893
▁Hangin	-5894
▁London	-5895
▁Pistol	-5896
▁Playin	-5897
▁Poppin	-5898
▁Travis	-5899
▁angels	-5900
▁appear	-5901
▁assume	-5902
▁blocks	-5903
▁broads	-5904
▁bumpin	-5905
▁carpet	-5906
▁charts	-5907
▁chorus	-5908
▁depend	-5909
▁diggin	-5910
▁driver	-5911
▁eating	-5912
▁fantas	-5913
▁giving	-5914
▁golden	-5915
▁guilty	-5916
▁handed	-5917
▁helped	-5918
▁league	-5919
▁length	-5920
▁louder	-5921
▁mentor	-5922
▁messin	-5923
▁missin	-5924
▁pickin	-5925
▁poured	-5926
▁rumors	-5927
▁savage	-5928
▁scheme	-5929
▁sendin	-5930
▁status	-5931
▁stores	-5932
▁sucker	-5933
▁throne	-5934
▁waited	-5935
▁weepin	-5936
▁winnin	-5937
▁wrists	-5938
borghini	-5939
onscious	-5940
ordinate	-5941
thousand	-5942
▁Loyalty	-5943
▁Sherane	-5944
▁Welcome	-5945
▁actions	-5946
▁address	-5947
▁charact	-5948
▁charged	-5949
▁compare	-5950
▁consume	-5951
▁cousins	-5952
▁created	-5953
▁creepin	-5954
▁element	-5955
▁flipped	-5956
▁gnashin	-5957
▁lyrical	-5958
▁perform	-5959
▁planned	-5960
▁poverty	-5961
▁screwed	-5962
▁smashed	-5963
▁stackin	-5964
▁staring	-5965
▁steppin	-5966
▁sweeter	-5967
▁younger	-5968
▁Watching	-5969
▁Whenever	-5970
▁elephant	-5971
▁everyday	-5972
▁fighting	-5973
▁hospital	-5974
▁infinite	-5975
▁insecure	-5976
▁milliona	-5977
▁murdered	-5978
▁nowadays	-5979
▁prophets	-5980
▁serenade	-5981
▁skinnies	-5982
▁squabble	-5983
▁survival	-5984
▁switched	-5985
▁thankful	-5986
▁autograph	-5987
▁ignorance	-5988
▁thousands	-5989
▁Coordinate	-5990
▁conflicted	-5991
▁Lamborghini	-5992
▁competition	-5993
▁insecurities	-5994
4,	-5995
7,	-5996
AP	-5997
AR	-5998
AY	-5999
An	-6000
Ch	-6001
Na	-6002
OL	-6003
cs	-6004
li	-6005
oj	-6006
és	-6007
?")	-6008
NEM	-6009
Pew	-6010
Say	-6011
Way	-6012
aka	-6013
arn	-6014
cul	-6015
dro	-6016
eez	-6017
etr	-6018
fer	-6019
hal	-6020
ham	-6021
hee	-6022
ino	-6023
non	-6024
omy	-6025
par	-6026
pes	-6027
rad	-6028
rix	-6029
uph	-6030
vey	-6031
▁'0	-6032
▁Ri	-6033
▁Sy	-6034
▁dy	-6035
▁iP	-6036
▁ic	-6037
Baow	-6038
Grey	-6039
Sick	-6040
Stop	-6041
Your	-6042
alin	-6043
anic	-6044
anne	-6045
arin	-6046
case	-6047
done	-6048
drop	-6049
eman	-6050
esse	-6051
gent	-6052
hang	-6053
idal	-6054
iger	-6055
imum	-6056
inch	-6057
inda	-6058
ipul	-6059
irts	-6060
isha	-6061
mail	-6062
ntom	-6063
ocka	-6064
odka	-6065
oned	-6066
onym	-6067
ooky	-6068
orse	-6069
phan	-6070
rect	-6071
rend	-6072
rint	-6073
rope	-6074
sens	-6075
uana	-6076
unky	-6077
well	-6078
word	-6079
▁Bat	-6080
▁Bey	-6081
▁Dif	-6082
▁Duh	-6083
▁EMI	-6084
▁JAY	-6085
▁Jam	-6086
▁Lau	-6087
▁Lew	-6088
▁Mad	-6089
▁Met	-6090
▁Mor	-6091
▁Pea	-6092
▁Rob	-6093
▁Sun	-6094
▁Tay	-6095
▁Vic	-6096
▁agh	-6097
▁ame	-6098
▁bee	-6099
▁cau	-6100
▁cho	-6101
▁fac	-6102
▁fee	-6103
▁gym	-6104
▁hes	-6105
▁kin	-6106
▁nod	-6107
▁nor	-6108
▁obs	-6109
▁tag	-6110
▁tap	-6111
▁tha	-6112
▁tou	-6113
Leave	-6114
Thank	-6115
alent	-6116
alest	-6117
ality	-6118
ample	-6119
asted	-6120
break	-6121
cence	-6122
crans	-6123
eased	-6124
ember	-6125
fifty	-6126
fucka	-6127
iller	-6128
lands	-6129
leans	-6130
maker	-6131
mbers	-6132
morse	-6133
orate	-6134
ships	-6135
sters	-6136
stick	-6137
uthor	-6138
▁Body	-6139
▁Dale	-6140
▁Dawg	-6141
▁Dick	-6142
▁Done	-6143
▁Duck	-6144
▁Ferr	-6145
▁Fire	-6146
▁Form	-6147
▁Full	-6148
▁Gold	-6149
▁Hang	-6150
▁Jama	-6151
▁None	-6152
▁Rome	-6153
▁Sear	-6154
▁Sick	-6155
▁Soul	-6156
▁Stan	-6157
▁Tech	-6158
▁Timb	-6159
▁acts	-6160
▁bast	-6161
▁cage	-6162
▁core	-6163
▁deny	-6164
▁dial	-6165
▁disg	-6166
▁drif	-6167
▁film	-6168
▁flaw	-6169
▁fuel	-6170
▁groo	-6171
▁hunt	-6172
▁inde	-6173
▁jung	-6174
▁loot	-6175
▁meds	-6176
▁narc	-6177
▁purs	-6178
▁soda	-6179
▁sort	-6180
▁spaz	-6181
▁torn	-6182
▁trop	-6183
▁tube	-6184
▁tuck	-6185
▁usin	-6186
▁wage	-6187
▁zomb	-6188
Please	-6189
easons	-6190
itches	-6191
itions	-6192
onnect	-6193
softer	-6194
▁Eatin	-6195
▁Faith	-6196
▁Freak	-6197
▁Goose	-6198
▁Learn	-6199
▁Night	-6200
▁Other	-6201
▁Patty	-6202
▁Quest	-6203
▁Saint	-6204
▁Shots	-6205
▁Sneak	-6206
▁State	-6207
▁Tommy	-6208
▁Tryin	-6209
▁Ville	-6210
▁aimin	-6211
▁blank	-6212
▁blaow	-6213
▁board	-6214
▁bully	-6215
▁cared	-6216
▁dudes	-6217
▁dumbo	-6218
▁fears	-6219
▁fumes	-6220
▁habit	-6221
▁heels	-6222
▁horse	-6223
▁ident	-6224
▁liter	-6225
▁mixta	-6226
▁motto	-6227
▁panic	-6228
▁parad	-6229
▁prick	-6230
▁react	-6231
▁reign	-6232
▁rides	-6233
▁ropes	-6234
▁sever	-6235
▁smack	-6236
▁sniff	-6237
▁souls	-6238
▁study	-6239
▁sucks	-6240
▁sugar	-6241
▁sword	-6242
▁thumb	-6243
▁tools	-6244
▁using	-6245
▁vodka	-6246
▁whoop	-6247
forever	-6248
hearted	-6249
skinned	-6250
uminati	-6251
utation	-6252
▁Biggie	-6253
▁Bought	-6254
▁Callin	-6255
▁Caught	-6256
▁Chainz	-6257
▁Church	-6258
▁EMINEM	-6259
▁Either	-6260
▁Enough	-6261
▁Friday	-6262
▁Murder	-6263
▁Second	-6264
▁Sellin	-6265
▁Sippin	-6266
▁Sloppy	-6267
▁appeal	-6268
▁breast	-6269
▁buggin	-6270
▁buzzin	-6271
▁chasin	-6272
▁chosen	-6273
▁clever	-6274
▁confir	-6275
▁desire	-6276
▁drinks	-6277
▁effort	-6278
▁entire	-6279
▁floors	-6280
▁fucker	-6281
▁gassed	-6282
▁hating	-6283
▁hatred	-6284
▁hoppin	-6285
▁hunger	-6286
▁inspir	-6287
▁itself	-6288
▁layers	-6289
▁lifted	-6290
▁ninety	-6291
▁orphan	-6292
▁pedest	-6293
▁pessim	-6294
▁powers	-6295
▁prayer	-6296
▁proper	-6297
▁purple	-6298
▁repent	-6299
▁reside	-6300
▁rounds	-6301
▁savior	-6302
▁script	-6303
▁seeing	-6304
▁seemed	-6305
▁shovel	-6306
▁skinny	-6307
▁smiles	-6308
▁stacks	-6309
▁stones	-6310
▁talent	-6311
▁textin	-6312
▁thanks	-6313
▁ticket	-6314
▁videos	-6315
▁wallet	-6316
▁wheels	-6317
▁wounds	-6318
▁Anthony	-6319
▁Differe	-6320
▁Drinkin	-6321
▁Dropped	-6322
▁Finally	-6323
▁Grammys	-6324
▁Jacques	-6325
▁Phantom	-6326
▁Picture	-6327
▁anxious	-6328
▁blowing	-6329
▁careful	-6330
▁carried	-6331
▁codeine	-6332
▁confess	-6333
▁crashin	-6334
▁grandma	-6335
▁hallway	-6336
▁hanging	-6337
▁herself	-6338
▁knockin	-6339
▁laughed	-6340
▁leaders	-6341
▁members	-6342
▁outcome	-6343
▁plastic	-6344
▁politic	-6345
▁prayers	-6346
▁predict	-6347
▁princip	-6348
▁proceed	-6349
▁reached	-6350
▁realest	-6351
▁remorse	-6352
▁schemin	-6353
▁seventy	-6354
▁sisters	-6355
▁slippin	-6356
▁smiling	-6357
▁society	-6358
▁spillin	-6359
▁spittin	-6360
▁squeeze	-6361
▁swangin	-6362
▁threats	-6363
▁titties	-6364
▁towards	-6365
▁triller	-6366
▁unknown	-6367
▁Greatest	-6368
▁Thoughts	-6369
▁abortion	-6370
▁attached	-6371
▁concrete	-6372
▁familiar	-6373
▁followin	-6374
▁fourteen	-6375
▁graduate	-6376
▁hesitate	-6377
▁laughing	-6378
▁medicine	-6379
▁murderin	-6380
▁nonsense	-6381
▁presence	-6382
▁sentence	-6383
▁stranger	-6384
▁stripper	-6385
▁weakness	-6386
▁Motivated	-6387
▁President	-6388
▁Rosecrans	-6389
▁Therefore	-6390
▁apartment	-6391
▁breakfast	-6392
▁character	-6393
▁condition	-6394
▁defensive	-6395
▁interview	-6396
▁intuition	-6397
▁mentality	-6398
▁overheard	-6399
▁passenger	-6400
▁responsib	-6401
▁therapist	-6402
ratulations	-6403
▁Illuminati	-6404
▁accomplish	-6405
▁attraction	-6406
▁highlights	-6407
▁motivation	-6408
▁perspective	-6409
▁conversations	-6410
'"	-6411
*}	-6412
At	-6413
BO	-6414
Do	-6415
Ex	-6416
Gr	-6417
MA	-6418
OO	-6419
Or	-6420
TV	-6421
VS	-6422
ai	-6423
ec	-6424
ex	-6425
pa	-6426
sa	-6427
sm	-6428
…)	-6429
▁“	-6430
Boy	-6431
Cha	-6432
Flo	-6433
ado	-6434
amb	-6435
bin	-6436
but	-6437
col	-6438
dah	-6439
dog	-6440
eye	-6441
eys	-6442
fel	-6443
igo	-6444
imm	-6445
mod	-6446
nam	-6447
obe	-6448
ogy	-6449
oms	-6450
ona	-6451
son	-6452
uep	-6453
uet	-6454
ula	-6455
ulu	-6456
umé	-6457
usb	-6458
voc	-6459
whe	-6460
▁24	-6461
▁25	-6462
▁AP	-6463
▁BM	-6464
▁Fu	-6465
▁Jr	-6466
▁Mi	-6467
▁eb	-6468
▁lu	-6469
▁mé	-6470
▁nu	-6471
Feel	-6472
Gram	-6473
Long	-6474
Some	-6475
With	-6476
arre	-6477
arry	-6478
ateg	-6479
azin	-6480
cell	-6481
chet	-6482
hell	-6483
hern	-6484
iere	-6485
ighs	-6486
ihil	-6487
ipin	-6488
itin	-6489
just	-6490
know	-6491
laim	-6492
lish	-6493
load	-6494
made	-6495
none	-6496
ocol	-6497
odin	-6498
otes	-6499
otic	-6500
pack	-6501
pite	-6502
ploy	-6503
pons	-6504
ppet	-6505
pull	-6506
rape	-6507
rapy	-6508
robe	-6509
sign	-6510
tles	-6511
ubba	-6512
uits	-6513
usse	-6514
▁.45	-6515
▁21)	-6516
▁Air	-6517
▁Ass	-6518
▁Cub	-6519
▁Equ	-6520
▁Ext	-6521
▁Few	-6522
▁Joe	-6523
▁Lex	-6524
▁MAC	-6525
▁MTV	-6526
▁Mel	-6527
▁Ran	-6528
▁Sky	-6529
▁Son	-6530
▁Sty	-6531
▁Sum	-6532
▁Van	-6533
▁Vir	-6534
▁Wow	-6535
▁adm	-6536
▁ahh	-6537
▁bru	-6538
▁cah	-6539
▁cal	-6540
▁edu	-6541
▁fet	-6542
▁jer	-6543
▁led	-6544
▁loc	-6545
▁nap	-6546
▁nun	-6547
▁occ	-6548
▁pal	-6549
▁rom	-6550
▁sed	-6551
▁shy	-6552
▁vol	-6553
▁wop	-6554
▁yaw	-6555
▁yep	-6556
Check	-6557
abric	-6558
ament	-6559
arget	-6560
ashes	-6561
assin	-6562
astin	-6563
clock	-6564
ender	-6565
enses	-6566
icket	-6567
igent	-6568
ishin	-6569
nails	-6570
onate	-6571
order	-6572
racle	-6573
rella	-6574
upper	-6575
uring	-6576
urity	-6577
while	-6578
zilla	-6579
ésumé	-6580
▁(21,	-6581
▁Boom	-6582
▁Cent	-6583
▁Doin	-6584
▁Dyin	-6585
▁Forb	-6586
▁Fred	-6587
▁Joke	-6588
▁Kick	-6589
▁Matt	-6590
▁Mean	-6591
▁Pret	-6592
▁Puff	-6593
▁Rode	-6594
▁Sect	-6595
▁Send	-6596
▁Spir	-6597
▁Trap	-6598
▁True	-6599
▁Wear	-6600
▁Wind	-6601
▁Writ	-6602
▁Zulu	-6603
▁acid	-6604
▁beep	-6605
▁bell	-6606
▁bent	-6607
▁bled	-6608
▁camp	-6609
▁cane	-6610
▁copy	-6611
▁cord	-6612
▁cute	-6613
▁cuts	-6614
▁dies	-6615
▁dome	-6616
▁doub	-6617
▁exec	-6618
▁flew	-6619
▁foul	-6620
▁hill	-6621
▁husb	-6622
▁iced	-6623
▁lime	-6624
▁ling	-6625
▁loop	-6626
▁lots	-6627
▁mart	-6628
▁meal	-6629
▁melt	-6630
▁moms	-6631
▁mort	-6632
▁palm	-6633
▁pose	-6634
▁prob	-6635
▁rate	-6636
▁reck	-6637
▁riot	-6638
▁rude	-6639
▁rule	-6640
▁salt	-6641
▁sink	-6642
▁size	-6643
▁soap	-6644
▁sock	-6645
▁vers	-6646
▁vibr	-6647
▁warn	-6648
▁weig	-6649
▁woes	-6650
Member	-6651
elcome	-6652
erable	-6653
ijuana	-6654
iments	-6655
mother	-6656
phones	-6657
ussies	-6658
utiful	-6659
▁Beach	-6660
▁Blame	-6661
▁Bound	-6662
▁Diddy	-6663
▁Drink	-6664
▁Drown	-6665
▁Drugs	-6666
▁Green	-6667
▁Heavy	-6668
▁Hopin	-6669
▁Kenny	-6670
▁Kinda	-6671
▁Makin	-6672
▁Obama	-6673
▁Rambo	-6674
▁Small	-6675
▁Smash	-6676
▁Spent	-6677
▁Steve	-6678
▁Truth	-6679
▁Twist	-6680
▁alike	-6681
▁ashes	-6682
▁backs	-6683
▁berry	-6684
▁bitin	-6685
▁blown	-6686
▁blows	-6687
▁bucks	-6688
▁budge	-6689
▁cater	-6690
▁cheap	-6691
▁cried	-6692
▁deter	-6693
▁drain	-6694
▁dummy	-6695
▁famil	-6696
▁fangs	-6697
▁flock	-6698
▁frame	-6699
▁fucks	-6700
▁gates	-6701
▁giant	-6702
▁hates	-6703
▁holes	-6704
▁hopes	-6705
▁kings	-6706
▁lanes	-6707
▁large	-6708
▁mercy	-6709
▁metal	-6710
▁minor	-6711
▁noose	-6712
▁offer	-6713
▁patty	-6714
▁plain	-6715
▁pleas	-6716
▁queen	-6717
▁sales	-6718
▁scale	-6719
▁sched	-6720
▁schiz	-6721
▁scrap	-6722
▁sharp	-6723
▁silly	-6724
▁slick	-6725
▁slime	-6726
▁solid	-6727
▁solve	-6728
▁spare	-6729
▁spite	-6730
▁stays	-6731
▁stone	-6732
▁trips	-6733
▁venom	-6734
▁video	-6735
▁wrest	-6736
ardless	-6737
attered	-6738
ication	-6739
rophies	-6740
ueprint	-6741
▁Almost	-6742
▁Angels	-6743
▁Blowin	-6744
▁Bottom	-6745
▁Bounce	-6746
▁Chubbs	-6747
▁Clique	-6748
▁Dreams	-6749
▁Nathan	-6750
▁Scared	-6751
▁Switch	-6752
▁amends	-6753
▁awards	-6754
▁beefin	-6755
▁borrow	-6756
▁buried	-6757
▁bustin	-6758
▁clears	-6759
▁commas	-6760
▁cookin	-6761
▁county	-6762
▁crowds	-6763
▁defend	-6764
▁digger	-6765
▁dishes	-6766
▁easier	-6767
▁easily	-6768
▁employ	-6769
▁extens	-6770
▁fallen	-6771
▁gifted	-6772
▁gotten	-6773
▁grieve	-6774
▁hardly	-6775
▁hurtin	-6776
▁jungle	-6777
▁lawyer	-6778
▁lovely	-6779
▁manage	-6780
▁mobbin	-6781
▁nerves	-6782
▁pardon	-6783
▁parked	-6784
▁places	-6785
▁points	-6786
▁racist	-6787
▁resist	-6788
▁retire	-6789
▁rewind	-6790
▁rocket	-6791
▁rolled	-6792
▁ruined	-6793
▁runway	-6794
▁salary	-6795
▁skelet	-6796
▁smilin	-6797
▁source	-6798
▁speech	-6799
▁spooky	-6800
▁sticks	-6801
▁stroke	-6802
▁suckin	-6803
▁thangs	-6804
▁thrown	-6805
▁trophy	-6806
▁washed	-6807
▁willin	-6808
▁African	-6809
▁Floatin	-6810
▁Getting	-6811
▁Orleans	-6812
▁Section	-6813
▁Suicide	-6814
▁Sundays	-6815
▁Tonight	-6816
▁Versace	-6817
▁Whether	-6818
▁achieve	-6819
▁advance	-6820
▁allowed	-6821
▁babysit	-6822
▁billion	-6823
▁burning	-6824
▁catchin	-6825
▁circles	-6826
▁disgust	-6827
▁failure	-6828
▁grabbin	-6829
▁greater	-6830
▁growing	-6831
▁highway	-6832
▁hotline	-6833
▁hustlin	-6834
▁justify	-6835
▁knowing	-6836
▁letters	-6837
▁manipul	-6838
▁manners	-6839
▁missing	-6840
▁putting	-6841
▁quicker	-6842
▁relieve	-6843
▁singing	-6844
▁snortin	-6845
▁sparkle	-6846
▁stepped	-6847
▁stickin	-6848
▁suggest	-6849
▁swimmin	-6850
▁touched	-6851
▁walking	-6852
▁Westside	-6853
▁Wonderin	-6854
▁apparent	-6855
▁believed	-6856
▁breaking	-6857
▁collapse	-6858
▁contempl	-6859
▁downfall	-6860
▁expected	-6861
▁followed	-6862
▁magazine	-6863
▁opinions	-6864
▁premiere	-6865
▁scholars	-6866
▁screamed	-6867
▁separate	-6868
▁shooters	-6869
▁starting	-6870
▁suddenly	-6871
▁upstairs	-6872
emonstrate	-6873
▁Spotlight	-6874
▁beginning	-6875
▁butterfly	-6876
▁heartbeat	-6877
▁miserable	-6878
▁pretendin	-6879
▁screaming	-6880
▁seventeen	-6881
▁spiritual	-6882
▁superstar	-6883
▁Especially	-6884
▁compromise	-6885
▁experience	-6886
▁frightenin	-6887
▁mothafucka	-6888
▁reflection	-6889
▁reputation	-6890
▁summertime	-6891
▁underneath	-6892
▁Motherfuckers	-6893
▁relationships	-6894
-,	-6895
.'	-6896
. 	-6897
20	-6898
30	-6899
Fi	-6900
af	-6901
cé	-6902
ds	-6903
fi	-6904
fl	-6905
gl	-6906
hw	-6907
wo	-6908
zo	-6909
▁&	-6910
▁;	-6911
Chy	-6912
Min	-6913
Mom	-6914
Off	-6915
Ohh	-6916
See	-6917
ann	-6918
awn	-6919
aze	-6920
azi	-6921
can	-6922
cho	-6923
cts	-6924
enn	-6925
gwa	-6926
ima	-6927
ini	-6928
ngr	-6929
nov	-6930
ola	-6931
oss	-6932
pit	-6933
rav	-6934
uls	-6935
umn	-6936
yne	-6937
​​*	-6938
▁11	-6939
▁28	-6940
▁30	-6941
▁6,	-6942
▁90	-6943
▁Ap	-6944
▁Ay	-6945
▁ID	-6946
▁Ja	-6947
▁Mu	-6948
▁NF	-6949
▁PC	-6950
▁Ya	-6951
▁Ze	-6952
▁oi	-6953
▁ye	-6954
Here	-6955
Life	-6956
Make	-6957
Rari	-6958
ablo	-6959
ache	-6960
acts	-6961
adab	-6962
andy	-6963
arks	-6964
auge	-6965
away	-6966
bers	-6967
book	-6968
born	-6969
boys	-6970
cend	-6971
chan	-6972
chie	-6973
colm	-6974
eets	-6975
ells	-6976
etic	-6977
fits	-6978
gain	-6979
gedy	-6980
hand	-6981
hend	-6982
idas	-6983
iddy	-6984
irin	-6985
isin	-6986
ites	-6987
itor	-6988
keep	-6989
lace	-6990
lest	-6991
name	-6992
nine	-6993
noon	-6994
obic	-6995
offs	-6996
onda	-6997
oria	-6998
oted	-6999
pers	-7000
phew	-7001
pill	-7002
pter	-7003
rain	-7004
rink	-7005
rofo	-7006
rome	-7007
sequ	-7008
uals	-7009
ware	-7010
yond	-7011
▁100	-7012
▁Add	-7013
▁Ahh	-7014
▁Ash	-7015
▁BET	-7016
▁Dan	-7017
▁Den	-7018
▁Dod	-7019
▁Dog	-7020
▁Dom	-7021
▁Fed	-7022
▁Fro	-7023
▁Jon	-7024
▁Los	-7025
▁Pir	-7026
▁Rom	-7027
▁Sub	-7028
▁Tea	-7029
▁Ter	-7030
▁Tip	-7031
▁Uzi	-7032
▁Yup	-7033
▁bib	-7034
▁bog	-7035
▁bop	-7036
▁cam	-7037
▁coo	-7038
▁cot	-7039
▁cru	-7040
▁cul	-7041
▁cyp	-7042
▁dna	-7043
▁fel	-7044
▁ink	-7045
▁luh	-7046
▁mop	-7047
▁ner	-7048
▁pap	-7049
▁sus	-7050
▁tim	-7051
▁zit	-7052
Dying	-7053
Fella	-7054
Float	-7055
Never	-7056
abies	-7057
agger	-7058
agram	-7059
ander	-7060
ately	-7061
cknow	-7062
cture	-7063
eared	-7064
eater	-7065
gency	-7066
gwaan	-7067
house	-7068
iance	-7069
iggas	-7070
impse	-7071
isons	-7072
issin	-7073
joice	-7074
olina	-7075
ougie	-7076
phone	-7077
redit	-7078
shift	-7079
sweet	-7080
tered	-7081
thang	-7082
urred	-7083
veled	-7084
▁Aunt	-7085
▁Case	-7086
▁Clap	-7087
▁Crip	-7088
▁Dark	-7089
▁Dece	-7090
▁Eyes	-7091
▁Gone	-7092
▁Hide	-7093
▁Hust	-7094
▁Jade	-7095
▁Jeff	-7096
▁Mand	-7097
▁Meet	-7098
▁Navy	-7099
▁Piss	-7100
▁Poor	-7101
▁Pors	-7102
▁Pump	-7103
▁Role	-7104
▁Sean	-7105
▁Sent	-7106
▁Vali	-7107
▁Woop	-7108
▁Xans	-7109
▁Zoom	-7110
▁blea	-7111
▁blem	-7112
▁bung	-7113
▁cast	-7114
▁chat	-7115
▁cher	-7116
▁cuff	-7117
▁dash	-7118
▁desk	-7119
▁emer	-7120
▁evol	-7121
▁exit	-7122
▁garb	-7123
▁gimm	-7124
▁gray	-7125
▁lear	-7126
▁lows	-7127
▁meat	-7128
▁nail	-7129
▁pave	-7130
▁peak	-7131
▁pean	-7132
▁pict	-7133
▁poke	-7134
▁port	-7135
▁poss	-7136
▁rebu	-7137
▁root	-7138
▁sack	-7139
▁sane	-7140
▁scar	-7141
▁shat	-7142
▁shoo	-7143
▁skrr	-7144
▁solo	-7145
▁swag	-7146
▁tame	-7147
▁tant	-7148
▁thou	-7149
▁tire	-7150
▁tote	-7151
▁trib	-7152
▁viol	-7153
▁womb	-7154
Chyeah	-7155
friend	-7156
icidal	-7157
intana	-7158
itated	-7159
ounced	-7160
pillar	-7161
rehend	-7162
rollin	-7163
school	-7164
though	-7165
umping	-7166
▁Aight	-7167
▁Andre	-7168
▁Asian	-7169
▁Block	-7170
▁Chase	-7171
▁Death	-7172
▁Donda	-7173
▁Early	-7174
▁Fight	-7175
▁Honda	-7176
▁Jimmy	-7177
▁Kings	-7178
▁Lyric	-7179
▁Molly	-7180
▁Peace	-7181
▁Psych	-7182
▁Quick	-7183
▁Rodeo	-7184
▁Rover	-7185
▁Shyne	-7186
▁Snoop	-7187
▁Sound	-7188
▁Touch	-7189
▁Worst	-7190
▁Write	-7191
▁Wrote	-7192
▁acres	-7193
▁alert	-7194
▁alpha	-7195
▁bench	-7196
▁blues	-7197
▁bound	-7198
▁chips	-7199
▁choir	-7200
▁crawl	-7201
▁demol	-7202
▁dilla	-7203
▁drift	-7204
▁eater	-7205
▁ended	-7206
▁erase	-7207
▁fruit	-7208
▁genie	-7209
▁grows	-7210
▁helps	-7211
▁hesit	-7212
▁hired	-7213
▁hobby	-7214
▁humor	-7215
▁idols	-7216
▁joint	-7217
▁jokin	-7218
▁kills	-7219
▁laced	-7220
▁liars	-7221
▁limbo	-7222
▁meets	-7223
▁mirac	-7224
▁muddy	-7225
▁nasty	-7226
▁packs	-7227
▁pedal	-7228
▁penny	-7229
▁pitch	-7230
▁plant	-7231
▁purse	-7232
▁roads	-7233
▁seats	-7234
▁shape	-7235
▁sixty	-7236
▁skies	-7237
▁steel	-7238
▁stere	-7239
▁swore	-7240
▁tales	-7241
▁talks	-7242
▁taxes	-7243
▁telev	-7244
▁toler	-7245
▁value	-7246
▁vibes	-7247
▁viral	-7248
▁walks	-7249
▁whips	-7250
▁wifey	-7251
▁wired	-7252
Loyalty	-7253
alities	-7254
imental	-7255
onymous	-7256
ophobic	-7257
outhern	-7258
redible	-7259
ustomed	-7260
▁Change	-7261
▁Coming	-7262
▁Excuse	-7263
▁Flexin	-7264
▁Forbes	-7265
▁Fucked	-7266
▁Leavin	-7267
▁Making	-7268
▁Mariah	-7269
▁Master	-7270
▁Passin	-7271
▁Remind	-7272
▁Settin	-7273
▁Shadys	-7274
▁Singin	-7275
▁Spirit	-7276
▁Square	-7277
▁Stacks	-7278
▁Starin	-7279
▁Summer	-7280
▁Thanks	-7281
▁Turned	-7282
▁Walked	-7283
▁amazin	-7284
▁angles	-7285
▁author	-7286
▁baller	-7287
▁beggin	-7288
▁beyond	-7289
▁blonde	-7290
▁brakes	-7291
▁breeze	-7292
▁causin	-7293
▁ceilin	-7294
▁coffee	-7295
▁critic	-7296
▁dealer	-7297
▁decade	-7298
▁demand	-7299
▁desert	-7300
▁dissed	-7301
▁dodgin	-7302
▁doomed	-7303
▁estate	-7304
▁extend	-7305
▁favors	-7306
▁fiends	-7307
▁garden	-7308
▁gather	-7309
▁greedy	-7310
▁heroes	-7311
▁hooked	-7312
▁hopped	-7313
▁impact	-7314
▁invent	-7315
▁jammin	-7316
▁kidney	-7317
▁market	-7318
▁morals	-7319
▁obsess	-7320
▁orange	-7321
▁outfit	-7322
▁pastor	-7323
▁picket	-7324
▁posted	-7325
▁pourin	-7326
▁pushed	-7327
▁result	-7328
▁rubbin	-7329
▁saving	-7330
▁slight	-7331
▁stands	-7332
▁static	-7333
▁trauma	-7334
▁uptown	-7335
▁washin	-7336
▁witnes	-7337
▁yellow	-7338
▁Brought	-7339
▁Country	-7340
▁Despite	-7341
▁Fuckboy	-7342
▁Jordans	-7343
▁Laughin	-7344
▁Malcolm	-7345
▁Mustard	-7346
▁Perfect	-7347
▁Perhaps	-7348
▁Respect	-7349
▁Talking	-7350
▁William	-7351
▁arrived	-7352
▁becomes	-7353
▁bleedin	-7354
▁challen	-7355
▁charges	-7356
▁cleanin	-7357
▁clearly	-7358
▁contrad	-7359
▁corners	-7360
▁correct	-7361
▁dealing	-7362
▁deliver	-7363
▁drawers	-7364
▁drowned	-7365
▁evident	-7366
▁excited	-7367
▁faggots	-7368
▁fashion	-7369
▁freeway	-7370
▁garbage	-7371
▁glimpse	-7372
▁husband	-7373
▁islands	-7374
▁journey	-7375
▁jumping	-7376
▁keeping	-7377
▁lengths	-7378
▁lottery	-7379
▁madness	-7380
▁martian	-7381
▁natural	-7382
▁neglect	-7383
▁offense	-7384
▁passive	-7385
▁plaques	-7386
▁praying	-7387
▁process	-7388
▁replace	-7389
▁results	-7390
▁rolling	-7391
▁selling	-7392
▁slipped	-7393
▁strings	-7394
▁subject	-7395
▁suffice	-7396
▁triumph	-7397
▁tweakin	-7398
▁whisper	-7399
▁worship	-7400
▁yelling	-7401
ngrateful	-7402
▁Carolina	-7403
▁Cartiers	-7404
▁Kamikaze	-7405
▁Quintana	-7406
▁Squabble	-7407
▁Standing	-7408
▁Thinking	-7409
▁appetite	-7410
▁confined	-7411
▁convince	-7412
▁crackers	-7413
▁describe	-7414
▁eighteen	-7415
▁families	-7416
▁football	-7417
▁hollerin	-7418
▁homegirl	-7419
▁homeless	-7420
▁jealousy	-7421
▁medicate	-7422
▁metaphor	-7423
▁mistress	-7424
▁misunder	-7425
▁momentum	-7426
▁multiply	-7427
▁necklace	-7428
▁overseas	-7429
▁physical	-7430
▁possible	-7431
▁reaching	-7432
▁rockstar	-7433
▁snatched	-7434
▁surprise	-7435
▁sympathy	-7436
▁throwing	-7437
▁troubles	-7438
▁Beautiful	-7439
▁Boulevard	-7440
▁Champagne	-7441
▁Instagram	-7442
▁Slaughter	-7443
▁apologies	-7444
▁automatic	-7445
▁decisions	-7446
▁exhausted	-7447
▁hypocrite	-7448
▁imitating	-7449
▁innocence	-7450
▁knowledge	-7451
▁limelight	-7452
▁marijuana	-7453
▁potential	-7454
▁Redemption	-7455
▁accustomed	-7456
▁attractive	-7457
▁especially	-7458
▁nightmares	-7459
▁passionate	-7460
▁perfection	-7461
▁forgiveness	-7462
'-	-7463
, 	-7464
Bu	-7465
Da	-7466
Hm	-7467
IP	-7468
Qu	-7469
RL	-7470
YS	-7471
ARS	-7472
Ain	-7473
Lea	-7474
Put	-7475
acr	-7476
aes	-7477
ala	-7478
ani	-7479
aph	-7480
apt	-7481
ara	-7482
ata	-7483
avo	-7484
azz	-7485
bur	-7486
cil	-7487
cst	-7488
cto	-7489
cue	-7490
don	-7491
emi	-7492
ext	-7493
fil	-7494
fum	-7495
gle	-7496
iel	-7497
ige	-7498
ioc	-7499
iod	-7500
ito	-7501
iva	-7502
law	-7503
leg	-7504
lom	-7505
olf	-7506
osa	-7507
rag	-7508
sth	-7509
umm	-7510
urr	-7511
val	-7512
wah	-7513
▁AD	-7514
▁AS	-7515
▁Ac	-7516
▁Ak	-7517
▁Ba	-7518
▁CC	-7519
▁Dy	-7520
▁Fe	-7521
▁Hm	-7522
▁Ju	-7523
▁LP	-7524
▁Ms	-7525
▁OD	-7526
▁Si	-7527
▁vs	-7528
*}​​	-7529
...)	-7530
BOYS	-7531
Back	-7532
Joke	-7533
Less	-7534
acht	-7535
ador	-7536
aser	-7537
atti	-7538
berg	-7539
bits	-7540
boom	-7541
cers	-7542
ddie	-7543
elle	-7544
ents	-7545
foot	-7546
free	-7547
hamm	-7548
hone	-7549
iana	-7550
icle	-7551
igan	-7552
inal	-7553
inis	-7554
iors	-7555
isle	-7556
itar	-7557
itol	-7558
kest	-7559
lean	-7560
lock	-7561
oncé	-7562
oner	-7563
onin	-7564
orld	-7565
otos	-7566
oyce	-7567
pimp	-7568
rael	-7569
ries	-7570
rows	-7571
tlin	-7572
umpt	-7573
urin	-7574
vine	-7575
when	-7576
writ	-7577
xury	-7578
zone	-7579
​​​​	-7580
▁'80	-7581
▁Bug	-7582
▁Bun	-7583
▁CDs	-7584
▁Coc	-7585
▁Dam	-7586
▁Dec	-7587
▁Dep	-7588
▁Die	-7589
▁Doc	-7590
▁Emb	-7591
▁Esc	-7592
▁Eve	-7593
▁Eye	-7594
▁Fan	-7595
▁Guy	-7596
▁Hah	-7597
▁Hum	-7598
▁Imp	-7599
▁Jer	-7600
▁Joy	-7601
▁Lut	-7602
▁Mid	-7603
▁Mil	-7604
▁Min	-7605
▁Osc	-7606
▁Pow	-7607
▁Sad	-7608
▁Ser	-7609
▁Sin	-7610
▁Spl	-7611
▁VVS	-7612
▁cad	-7613
▁egg	-7614
▁era	-7615
▁foo	-7616
▁gat	-7617
▁gro	-7618
▁hal	-7619
▁heh	-7620
▁hid	-7621
▁jot	-7622
▁lik	-7623
▁log	-7624
▁mal	-7625
▁naw	-7626
▁pac	-7627
▁rag	-7628
▁rah	-7629
▁ree	-7630
▁rev	-7631
▁ruh	-7632
▁seh	-7633
▁sho	-7634
▁thy	-7635
▁una	-7636
▁urn	-7637
▁vag	-7638
▁vul	-7639
▁yee	-7640
Count	-7641
Grrah	-7642
Haunt	-7643
Shady	-7644
There	-7645
Think	-7646
Write	-7647
andom	-7648
ateur	-7649
cover	-7650
eable	-7651
eller	-7652
ergic	-7653
esome	-7654
feits	-7655
ffect	-7656
holes	-7657
idges	-7658
ifice	-7659
ingle	-7660
inter	-7661
itage	-7662
izing	-7663
jects	-7664
matic	-7665
obain	-7666
olute	-7667
piece	-7668
retch	-7669
rings	-7670
rrrat	-7671
scoop	-7672
steps	-7673
ulate	-7674
usion	-7675
▁9021	-7676
▁Abra	-7677
▁Adam	-7678
▁Bass	-7679
▁Bowl	-7680
▁Budd	-7681
▁Club	-7682
▁Cons	-7683
▁Drac	-7684
▁Fame	-7685
▁Fine	-7686
▁Flow	-7687
▁Foot	-7688
▁Grey	-7689
▁Hood	-7690
▁June	-7691
▁Keef	-7692
▁Kobe	-7693
▁Luke	-7694
▁Mark	-7695
▁Mess	-7696
▁Mich	-7697
▁Nobu	-7698
▁Prop	-7699
▁SARS	-7700
▁Seem	-7701
▁Sold	-7702
▁Sour	-7703
▁Tony	-7704
▁Town	-7705
▁Tuck	-7706
▁Vans	-7707
▁Vuit	-7708
▁ammo	-7709
▁bark	-7710
▁bean	-7711
▁blog	-7712
▁cape	-7713
▁chew	-7714
▁chop	-7715
▁coin	-7716
▁cust	-7717
▁deck	-7718
▁dess	-7719
▁dose	-7720
▁drap	-7721
▁dues	-7722
▁fart	-7723
▁fest	-7724
▁fish	-7725
▁flop	-7726
▁fuss	-7727
▁glow	-7728
▁guid	-7729
▁huge	-7730
▁laun	-7731
▁lawn	-7732
▁loan	-7733
▁mile	-7734
▁narr	-7735
▁oper	-7736
▁priv	-7737
▁pros	-7738
▁puff	-7739
▁rack	-7740
▁rana	-7741
▁runs	-7742
▁scam	-7743
▁shop	-7744
▁subl	-7745
▁sway	-7746
▁tags	-7747
▁tail	-7748
▁task	-7749
▁tent	-7750
▁toil	-7751
▁tort	-7752
▁vein	-7753
▁yams	-7754
▁{​​*	-7755
Donald	-7756
Hooray	-7757
adabra	-7758
agging	-7759
amples	-7760
frikki	-7761
hammad	-7762
headed	-7763
intend	-7764
iverse	-7765
manent	-7766
nother	-7767
ollect	-7768
rained	-7769
reakin	-7770
reathe	-7771
ressin	-7772
ulance	-7773
upreme	-7774
weight	-7775
▁Brand	-7776
▁Bunch	-7777
▁Chief	-7778
▁Cover	-7779
▁Dirty	-7780
▁Doing	-7781
▁Eddie	-7782
▁Elvis	-7783
▁Erica	-7784
▁False	-7785
▁Ghost	-7786
▁Gonna	-7787
▁Happy	-7788
▁Havin	-7789
▁Hurry	-7790
▁Jigga	-7791
▁Laugh	-7792
▁Lewis	-7793
▁Sauce	-7794
▁Stack	-7795
▁Story	-7796
▁Tears	-7797
▁Usher	-7798
▁Venom	-7799
▁Whoop	-7800
▁Whose	-7801
▁align	-7802
▁alleg	-7803
▁based	-7804
▁basis	-7805
▁bezel	-7806
▁boost	-7807
▁bunky	-7808
▁burst	-7809
▁cases	-7810
▁cents	-7811
▁chump	-7812
▁coats	-7813
▁cocoa	-7814
▁conce	-7815
▁conta	-7816
▁cries	-7817
▁cycle	-7818
▁disgu	-7819
▁drill	-7820
▁elect	-7821
▁fakin	-7822
▁flies	-7823
▁frank	-7824
▁fraud	-7825
▁fully	-7826
▁gauge	-7827
▁grams	-7828
▁grape	-7829
▁homes	-7830
▁hoped	-7831
▁intro	-7832
▁kicks	-7833
▁liver	-7834
▁mourn	-7835
▁nails	-7836
▁perks	-7837
▁photo	-7838
▁prior	-7839
▁rebel	-7840
▁rhyth	-7841
▁saint	-7842
▁salad	-7843
▁shady	-7844
▁sheep	-7845
▁shelf	-7846
▁shits	-7847
▁slash	-7848
▁spell	-7849
▁spill	-7850
▁spons	-7851
▁squee	-7852
▁stash	-7853
▁steak	-7854
▁steer	-7855
▁suits	-7856
▁swole	-7857
▁theme	-7858
▁thugs	-7859
▁tunes	-7860
▁twins	-7861
▁uncom	-7862
▁valid	-7863
▁wakin	-7864
▁weave	-7865
▁wiped	-7866
inessin	-7867
nerable	-7868
onestly	-7869
ralight	-7870
rection	-7871
sidered	-7872
▁Adidas	-7873
▁Afraid	-7874
▁Blacks	-7875
▁Cannon	-7876
▁Duckin	-7877
▁Freaky	-7878
▁Garden	-7879
▁Harder	-7880
▁Hidden	-7881
▁Holler	-7882
▁Israel	-7883
▁Jumped	-7884
▁Luther	-7885
▁Number	-7886
▁Pastor	-7887
▁Pushin	-7888
▁Savage	-7889
▁Sparks	-7890
▁Stunna	-7891
▁Valium	-7892
▁Wanted	-7893
▁Workin	-7894
▁accent	-7895
▁admire	-7896
▁affili	-7897
▁animal	-7898
▁badman	-7899
▁baguet	-7900
▁barrel	-7901
▁bougie	-7902
▁breaks	-7903
▁chicks	-7904
▁closin	-7905
▁cocked	-7906
▁colder	-7907
▁commun	-7908
▁coppin	-7909
▁corpse	-7910
▁cotton	-7911
▁crodie	-7912
▁cuttin	-7913
▁deadly	-7914
▁denial	-7915
▁disper	-7916
▁during	-7917
▁eighth	-7918
▁engine	-7919
▁expose	-7920
▁fabric	-7921
▁fading	-7922
▁flashy	-7923
▁flower	-7924
▁flowin	-7925
▁flying	-7926
▁fought	-7927
▁fourth	-7928
▁growth	-7929
▁guitar	-7930
▁helpin	-7931
▁hunnid	-7932
▁hypnot	-7933
▁iPhone	-7934
▁kiddin	-7935
▁leanin	-7936
▁lowest	-7937
▁misery	-7938
▁monkey	-7939
▁others	-7940
▁peanut	-7941
▁period	-7942
▁pimpin	-7943
▁plaque	-7944
▁plates	-7945
▁poetic	-7946
▁punish	-7947
▁puppet	-7948
▁random	-7949
▁realer	-7950
▁reaper	-7951
▁reject	-7952
▁richer	-7953
▁riches	-7954
▁rights	-7955
▁robbed	-7956
▁rocked	-7957
▁rotten	-7958
▁scenes	-7959
▁shadow	-7960
▁shines	-7961
▁silver	-7962
▁skills	-7963
▁slidin	-7964
▁slimin	-7965
▁social	-7966
▁sooner	-7967
▁spiral	-7968
▁tables	-7969
▁target	-7970
▁tennis	-7971
▁tinted	-7972
▁tiptoe	-7973
▁tragic	-7974
▁tucked	-7975
▁vacant	-7976
▁virgin	-7977
fortable	-7978
▁Already	-7979
▁Bugatti	-7980
▁Capitol	-7981
▁Darling	-7982
▁Feeling	-7983
▁Ferrari	-7984
▁Fifteen	-7985
▁Imagine	-7986
▁Reminis	-7987
▁Shoulda	-7988
▁Smoking	-7989
▁Standin	-7990
▁Therapy	-7991
▁Trouble	-7992
▁Vuitton	-7993
▁Whoever	-7994
▁amateur	-7995
▁assumpt	-7996
▁bastard	-7997
▁changes	-7998
▁channel	-7999
▁climate	-8000
▁closure	-8001
▁coldest	-8002
▁collarb	-8003
▁conceal	-8004
▁consequ	-8005
▁contest	-8006
▁crashed	-8007
▁decides	-8008
▁dessert	-8009
▁disease	-8010
▁dresser	-8011
▁drought	-8012
▁empathy	-8013
▁exposed	-8014
▁facking	-8015
▁feature	-8016
▁finesse	-8017
▁general	-8018
▁grabbed	-8019
▁handout	-8020
▁hearing	-8021
▁insides	-8022
▁kidneys	-8023
▁kingdom	-8024
▁learnin	-8025
▁lessons	-8026
▁manager	-8027
▁manikin	-8028
▁miracle	-8029
▁mixtape	-8030
▁mothers	-8031
▁noticed	-8032
▁ordered	-8033
▁plannin	-8034
▁players	-8035
▁pussies	-8036
▁quickly	-8037
▁ratchet	-8038
▁receive	-8039
▁retreat	-8040
▁royalty	-8041
▁schools	-8042
▁section	-8043
▁several	-8044
▁shining	-8045
▁singles	-8046
▁soundin	-8047
▁stealin	-8048
▁stepper	-8049
▁studied	-8050
▁succeed	-8051
▁summers	-8052
▁swervin	-8053
▁tension	-8054
▁thicker	-8055
▁totally	-8056
▁tragedy	-8057
▁vicious	-8058
▁wealthy	-8059
▁weighin	-8060
▁willing	-8061
conscious	-8062
racadabra	-8063
sensitive	-8064
▁Although	-8065
▁Benjamin	-8066
▁Finessin	-8067
▁Godzilla	-8068
▁Honestly	-8069
▁Levitate	-8070
▁McDonald	-8071
▁Question	-8072
▁Williams	-8073
▁alphabet	-8074
▁argument	-8075
▁bothered	-8076
▁confusin	-8077
▁contract	-8078
▁curtains	-8079
▁destined	-8080
▁drifting	-8081
▁elevator	-8082
▁friendly	-8083
▁furthest	-8084
▁guidance	-8085
▁homicide	-8086
▁immortal	-8087
▁internet	-8088
▁midnight	-8089
▁negative	-8090
▁obsessed	-8091
▁pedestal	-8092
▁prideful	-8093
▁relevant	-8094
▁schedule	-8095
▁sideways	-8096
▁stepping	-8097
▁teachers	-8098
▁terrible	-8099
▁trophies	-8100
▁underdog	-8101
▁Meanwhile	-8102
▁afternoon	-8103
▁ambulance	-8104
▁anonymous	-8105
▁arrogance	-8106
▁boulevard	-8107
▁boyfriend	-8108
▁celebrate	-8109
▁dedicated	-8110
▁destroyed	-8111
▁education	-8112
▁following	-8113
▁nightmare	-8114
▁offensive	-8115
▁permanent	-8116
▁principal	-8117
▁reminisce	-8118
▁sacrifice	-8119
▁skeletons	-8120
▁statement	-8121
▁strangers	-8122
▁stretched	-8123
▁strippers	-8124
▁voicemail	-8125
▁Dreamville	-8126
▁apparently	-8127
▁completely	-8128
▁comprehend	-8129
▁considered	-8130
▁dedication	-8131
▁frustrated	-8132
▁headphones	-8133
▁interviews	-8134
▁irrelevant	-8135
▁sacrifices	-8136
▁themselves	-8137
▁ultralight	-8138
▁bulletproof	-8139
▁caterpillar	-8140
▁imagination	-8141
▁millionaire	-8142
▁commandments	-8143
▁embarrassing	-8144
▁instrumental	-8145
▁uncomfortable	-8146
-)	-8147
-4	-8148
08	-8149
13	-8150
As	-8151
Aw	-8152
BA	-8153
Gu	-8154
LE	-8155
MG	-8156
eh	-8157
hi	-8158
ét	-8159
▁¡	-8160
!",	-8161
!),	-8162
-11	-8163
:30	-8164
AXL	-8165
Bad	-8166
Ben	-8167
Big	-8168
Bus	-8169
Com	-8170
Hop	-8171
Not	-8172
OLO	-8173
Run	-8174
Shh	-8175
Top	-8176
Wah	-8177
Wan	-8178
Was	-8179
Wet	-8180
adu	-8181
aps	-8182
awk	-8183
bil	-8184
chk	-8185
cus	-8186
ded	-8187
eee	-8188
egr	-8189
emp	-8190
ffe	-8191
fie	-8192
flu	-8193
haw	-8194
kes	-8195
las	-8196
lot	-8197
mbe	-8198
nap	-8199
oji	-8200
olt	-8201
ota	-8202
pop	-8203
tog	-8204
ubs	-8205
ued	-8206
uoy	-8207
urd	-8208
uto	-8209
wee	-8210
yal	-8211
zor	-8212
▁69	-8213
▁AT	-8214
▁Du	-8215
▁Eh	-8216
▁Eu	-8217
▁JT	-8218
▁Jo	-8219
▁NA	-8220
▁Os	-8221
▁Pu	-8222
▁Wi	-8223
▁YM	-8224
▁au	-8225
▁od	-8226
▁ot	-8227
▁py	-8228
▁ts	-8229
▁ym	-8230
Cole	-8231
Drop	-8232
Evil	-8233
Free	-8234
Girl	-8235
Good	-8236
Hehe	-8237
Last	-8238
Over	-8239
Rock	-8240
Roll	-8241
Talk	-8242
Walk	-8243
Woop	-8244
agon	-8245
aled	-8246
amas	-8247
amor	-8248
amps	-8249
anas	-8250
bags	-8251
bert	-8252
bery	-8253
bone	-8254
corn	-8255
draw	-8256
eted	-8257
even	-8258
fold	-8259
ibly	-8260
iety	-8261
iews	-8262
ifer	-8263
inds	-8264
inge	-8265
inox	-8266
iots	-8267
ivil	-8268
kind	-8269
mama	-8270
metr	-8271
nces	-8272
ogue	-8273
olic	-8274
ooze	-8275
ores	-8276
oset	-8277
osis	-8278
osit	-8279
phin	-8280
phis	-8281
rase	-8282
rate	-8283
reen	-8284
reet	-8285
rors	-8286
that	-8287
they	-8288
this	-8289
ucin	-8290
ucky	-8291
urse	-8292
walk	-8293
wall	-8294
wise	-8295
your	-8296
▁24/	-8297
▁AXL	-8298
▁Ast	-8299
▁Aww	-8300
▁Dee	-8301
▁Eif	-8302
▁Ele	-8303
▁Emp	-8304
▁Eng	-8305
▁Ent	-8306
▁Fab	-8307
▁Fox	-8308
▁Gar	-8309
▁Heh	-8310
▁Ike	-8311
▁Jag	-8312
▁Jap	-8313
▁Kat	-8314
▁Ken	-8315
▁Mat	-8316
▁Mus	-8317
▁NBA	-8318
▁Nik	-8319
▁Obi	-8320
▁Pal	-8321
▁Pap	-8322
▁Ref	-8323
▁Rod	-8324
▁Rox	-8325
▁Sch	-8326
▁Scr	-8327
▁Sea	-8328
▁Sur	-8329
▁TRL	-8330
▁Thr	-8331
▁Tim	-8332
▁Toy	-8333
▁Tri	-8334
▁Wes	-8335
▁Wet	-8336
▁Yuh	-8337
▁ape	-8338
▁aqu	-8339
▁biz	-8340
▁bon	-8341
▁cab	-8342
▁der	-8343
▁dot	-8344
▁enc	-8345
▁est	-8346
▁eth	-8347
▁fur	-8348
▁gah	-8349
▁gin	-8350
▁gut	-8351
▁gwa	-8352
▁hee	-8353
▁hoe	-8354
▁jig	-8355
▁les	-8356
▁max	-8357
▁mhm	-8358
▁nuh	-8359
▁paj	-8360
▁rim	-8361
▁rin	-8362
▁roo	-8363
▁sir	-8364
▁ski	-8365
▁sou	-8366
▁sow	-8367
▁spo	-8368
▁tat	-8369
▁ups	-8370
▁vow	-8371
▁wax	-8372
▁wig	-8373
▁wol	-8374
▁zip	-8375
Blade	-8376
Gonna	-8377
Order	-8378
Swang	-8379
Sweet	-8380
aches	-8381
adium	-8382
aghet	-8383
aires	-8384
asons	-8385
chase	-8386
cials	-8387
elson	-8388
faced	-8389
front	-8390
gging	-8391
hange	-8392
heart	-8393
ially	-8394
icans	-8395
ickel	-8396
idate	-8397
idote	-8398
ighty	-8399
inity	-8400
iocre	-8401
irkin	-8402
ishes	-8403
ivals	-8404
izzle	-8405
mblin	-8406
mined	-8407
ongst	-8408
oodle	-8409
opper	-8410
orted	-8411
otics	-8412
otter	-8413
thgin	-8414
tiest	-8415
track	-8416
tress	-8417
ugazi	-8418
usive	-8419
ustin	-8420
vival	-8421
whoop	-8422
▁ASAP	-8423
▁Baka	-8424
▁Buzz	-8425
▁Carl	-8426
▁Cher	-8427
▁Dirt	-8428
▁Drug	-8429
▁Dumb	-8430
▁Eugh	-8431
▁Evil	-8432
▁Fans	-8433
▁Guts	-8434
▁Gyal	-8435
▁Heal	-8436
▁Hoes	-8437
▁Jeep	-8438
▁Kept	-8439
▁Line	-8440
▁Mass	-8441
▁Mist	-8442
▁Mont	-8443
▁Neat	-8444
▁Nove	-8445
▁Pate	-8446
▁Post	-8447
▁Prom	-8448
▁Sacr	-8449
▁Sile	-8450
▁Spit	-8451
▁Stom	-8452
▁Stud	-8453
▁Such	-8454
▁Terr	-8455
▁Trip	-8456
▁Wild	-8457
▁Wrap	-8458
▁Zeus	-8459
▁arse	-8460
▁bada	-8461
▁bald	-8462
▁bout	-8463
▁bubb	-8464
▁buff	-8465
▁casa	-8466
▁chin	-8467
▁cups	-8468
▁cuss	-8469
▁cycl	-8470
▁demo	-8471
▁desp	-8472
▁dish	-8473
▁disp	-8474
▁dorm	-8475
▁exes	-8476
▁foes	-8477
▁forb	-8478
▁fuse	-8479
▁gear	-8480
▁hasn	-8481
▁kite	-8482
▁kush	-8483
▁lamp	-8484
▁lash	-8485
▁lazy	-8486
▁lice	-8487
▁lull	-8488
▁lung	-8489
▁magn	-8490
▁male	-8491
▁meth	-8492
▁mosh	-8493
▁nada	-8494
▁owed	-8495
▁pawn	-8496
▁pays	-8497
▁pizz	-8498
▁prev	-8499
▁pron	-8500
▁prot	-8501
▁rape	-8502
▁reap	-8503
▁requ	-8504
▁ribs	-8505
▁scor	-8506
▁seek	-8507
▁sequ	-8508
▁slid	-8509
▁soak	-8510
▁sofa	-8511
▁sued	-8512
▁surg	-8513
▁swap	-8514
▁syll	-8515
▁tact	-8516
▁tats	-8517
▁tele	-8518
▁tend	-8519
▁tens	-8520
▁thot	-8521
▁till	-8522
▁toll	-8523
▁tool	-8524
▁toys	-8525
▁tren	-8526
▁turf	-8527
▁urge	-8528
▁verb	-8529
▁visa	-8530
▁voot	-8531
▁wars	-8532
▁wavy	-8533
▁wing	-8534
Bigger	-8535
Fuckin	-8536
Hahaha	-8537
Niggas	-8538
Nother	-8539
Sheesh	-8540
action	-8541
ainted	-8542
atized	-8543
eaters	-8544
father	-8545
imated	-8546
irteen	-8547
lation	-8548
lessly	-8549
looked	-8550
nicity	-8551
onment	-8552
overed	-8553
resses	-8554
stance	-8555
sthgin	-8556
stroke	-8557
utious	-8558
walkin	-8559
▁Asked	-8560
▁Audem	-8561
▁Build	-8562
▁Caddy	-8563
▁Chevy	-8564
▁Claim	-8565
▁Clint	-8566
▁Color	-8567
▁Cross	-8568
▁Cuban	-8569
▁Dance	-8570
▁Dedic	-8571
▁Faded	-8572
▁Fancy	-8573
▁Fifty	-8574
▁Forty	-8575
▁Frank	-8576
▁Fresh	-8577
▁Gradu	-8578
▁Halle	-8579
▁Jacob	-8580
▁Juice	-8581
▁Keith	-8582
▁Larry	-8583
▁Lexus	-8584
▁Meets	-8585
▁Nicki	-8586
▁Perry	-8587
▁Pirus	-8588
▁Power	-8589
▁Pract	-8590
▁Proof	-8591
▁Reach	-8592
▁Rihan	-8593
▁Rolex	-8594
▁Ronny	-8595
▁Sayin	-8596
▁Shove	-8597
▁Slick	-8598
▁Smith	-8599
▁Space	-8600
▁Spike	-8601
▁Stick	-8602
▁Swing	-8603
▁Timbs	-8604
▁Trans	-8605
▁Wrist	-8606
▁Yours	-8607
▁abort	-8608
▁abuse	-8609
▁activ	-8610
▁aisle	-8611
▁alter	-8612
▁angle	-8613
▁annaw	-8614
▁asses	-8615
▁awful	-8616
▁birds	-8617
▁bogus	-8618
▁bombs	-8619
▁boxes	-8620
▁brave	-8621
▁breed	-8622
▁caged	-8623
▁cease	-8624
▁cheek	-8625
▁chess	-8626
▁clone	-8627
▁coast	-8628
▁comed	-8629
▁comet	-8630
▁cough	-8631
▁cream	-8632
▁dated	-8633
▁divor	-8634
▁drool	-8635
▁drops	-8636
▁dwell	-8637
▁facin	-8638
▁fades	-8639
▁fakes	-8640
▁farce	-8641
▁felon	-8642
▁fixed	-8643
▁floss	-8644
▁funds	-8645
▁gears	-8646
▁grill	-8647
▁harsh	-8648
▁holds	-8649
▁horns	-8650
▁idiot	-8651
▁inher	-8652
▁lames	-8653
▁lease	-8654
▁lemon	-8655
▁licks	-8656
▁local	-8657
▁mixin	-8658
▁murde	-8659
▁nappy	-8660
▁negat	-8661
▁ninet	-8662
▁north	-8663
▁pages	-8664
▁palms	-8665
▁panda	-8666
▁phony	-8667
▁pokin	-8668
▁promo	-8669
▁pyram	-8670
▁range	-8671
▁raped	-8672
▁razor	-8673
▁resur	-8674
▁risks	-8675
▁rooms	-8676
▁scent	-8677
▁sciss	-8678
▁simpl	-8679
▁skate	-8680
▁skull	-8681
▁snake	-8682
▁snare	-8683
▁spike	-8684
▁sting	-8685
▁stink	-8686
▁stump	-8687
▁swung	-8688
▁teena	-8689
▁tells	-8690
▁texts	-8691
▁towel	-8692
▁truce	-8693
▁trump	-8694
▁turnt	-8695
▁vacay	-8696
▁virus	-8697
▁wires	-8698
aghetti	-8699
ichrist	-8700
intendo	-8701
itation	-8702
itution	-8703
landish	-8704
metrius	-8705
mission	-8706
orgeous	-8707
ulation	-8708
uphoria	-8709
vention	-8710
visible	-8711
▁90210,	-8712
▁Bonnie	-8713
▁Broken	-8714
▁Buddha	-8715
▁Bumpin	-8716
▁Cobain	-8717
▁Corona	-8718
▁Crying	-8719
▁Eiffel	-8720
▁Fallin	-8721
▁Flocka	-8722
▁Follow	-8723
▁Glocks	-8724
▁Granny	-8725
▁Hahaha	-8726
▁Haters	-8727
▁Holdin	-8728
▁Intern	-8729
▁Ironic	-8730
▁Manson	-8731
▁Matrix	-8732
▁Nelson	-8733
▁Poetic	-8734
▁Prolly	-8735
▁Rather	-8736
▁Regret	-8737
▁Resent	-8738
▁Savior	-8739
▁Unless	-8740
▁Whoops	-8741
▁acknow	-8742
▁aggrav	-8743
▁backin	-8744
▁batter	-8745
▁behave	-8746
▁belief	-8747
▁beware	-8748
▁bloody	-8749
▁blurry	-8750
▁booked	-8751
▁border	-8752
▁brings	-8753
▁bungee	-8754
▁burden	-8755
▁bushes	-8756
▁cancel	-8757
▁cancer	-8758
▁casket	-8759
▁caused	-8760
▁chokin	-8761
▁chrome	-8762
▁create	-8763
▁cursed	-8764
▁debate	-8765
▁demise	-8766
▁depart	-8767
▁diaper	-8768
▁digits	-8769
▁diplom	-8770
▁doubts	-8771
▁earned	-8772
▁effect	-8773
▁facade	-8774
▁failed	-8775
▁fastin	-8776
▁fellow	-8777
▁female	-8778
▁finest	-8779
▁flexin	-8780
▁freely	-8781
▁healin	-8782
▁homage	-8783
▁hoodie	-8784
▁hotter	-8785
▁inform	-8786
▁instin	-8787
▁insult	-8788
▁intell	-8789
▁invite	-8790
▁itchin	-8791
▁jetski	-8792
▁knives	-8793
▁leader	-8794
▁liable	-8795
▁limits	-8796
▁loadin	-8797
▁losses	-8798
▁lowkey	-8799
▁lurkin	-8800
▁luxury	-8801
▁makeup	-8802
▁maniac	-8803
▁mechan	-8804
▁menace	-8805
▁misled	-8806
▁misogy	-8807
▁nature	-8808
▁online	-8809
▁outlet	-8810
▁packin	-8811
▁parent	-8812
▁passes	-8813
▁pencil	-8814
▁prefer	-8815
▁recipe	-8816
▁relent	-8817
▁remedy	-8818
▁remote	-8819
▁rescue	-8820
▁resort	-8821
▁rippin	-8822
▁rubber	-8823
▁sample	-8824
▁screws	-8825
▁shitty	-8826
▁sicker	-8827
▁simply	-8828
▁sinnin	-8829
▁snooze	-8830
▁spider	-8831
▁squash	-8832
▁starve	-8833
▁strive	-8834
▁struck	-8835
▁thighs	-8836
▁underw	-8837
▁vandal	-8838
▁whores	-8839
▁wisdom	-8840
▁wolves	-8841
▁worthy	-8842
Gentiles	-8843
ependent	-8844
ointment	-8845
▁Beyoncé	-8846
▁Bizarre	-8847
▁Breathe	-8848
▁Equinox	-8849
▁Forgive	-8850
▁Forrest	-8851
▁However	-8852
▁Jealous	-8853
▁Memphis	-8854
▁Passion	-8855
▁Porsche	-8856
▁Poverty	-8857
▁Rappers	-8858
▁Rejoice	-8859
▁Richard	-8860
▁Rollies	-8861
▁Rolling	-8862
▁Roxanne	-8863
▁Running	-8864
▁Someday	-8865
▁Somehow	-8866
▁Steppin	-8867
▁Streets	-8868
▁Stretch	-8869
▁Styrofo	-8870
▁Vicodin	-8871
▁Whippin	-8872
▁amongst	-8873
▁annihil	-8874
▁apology	-8875
▁attacks	-8876
▁baddest	-8877
▁ballers	-8878
▁belongs	-8879
▁benefit	-8880
▁blockin	-8881
▁bottled	-8882
▁capable	-8883
▁capture	-8884
▁ceiling	-8885
▁chapter	-8886
▁cheatin	-8887
▁chopped	-8888
▁coffins	-8889
▁complex	-8890
▁concern	-8891
▁confuse	-8892
▁conquer	-8893
▁courage	-8894
▁cracked	-8895
▁credits	-8896
▁crushed	-8897
▁cumming	-8898
▁decided	-8899
▁depends	-8900
▁devoted	-8901
▁digital	-8902
▁eternal	-8903
▁evening	-8904
▁fantasy	-8905
▁fathers	-8906
▁foolish	-8907
▁guessin	-8908
▁hateful	-8909
▁heights	-8910
▁homeboy	-8911
▁however	-8912
▁hurting	-8913
▁hustler	-8914
▁invited	-8915
▁jeweler	-8916
▁lecture	-8917
▁longest	-8918
▁menacin	-8919
▁mirrors	-8920
▁observe	-8921
▁officer	-8922
▁partner	-8923
▁pennies	-8924
▁popping	-8925
▁pouring	-8926
▁prepare	-8927
▁proudly	-8928
▁provide	-8929
▁rapping	-8930
▁reasons	-8931
▁recover	-8932
▁reflect	-8933
▁relapse	-8934
▁reminds	-8935
▁retards	-8936
▁shotgun	-8937
▁similar	-8938
▁sincere	-8939
▁sinning	-8940
▁slapped	-8941
▁slavery	-8942
▁smarter	-8943
▁snappin	-8944
▁spitter	-8945
▁stacked	-8946
▁strateg	-8947
▁streams	-8948
▁stuntin	-8949
▁sweatin	-8950
▁testify	-8951
▁touchin	-8952
▁tripped	-8953
▁victims	-8954
▁warning	-8955
▁wasting	-8956
▁wearing	-8957
▁youngin	-8958
▁zombies	-8959
ouncement	-8960
▁Burrrrat	-8961
▁Constant	-8962
▁December	-8963
▁Gentiles	-8964
▁JACKBOYS	-8965
▁Jamaican	-8966
▁Michigan	-8967
▁Midnight	-8968
▁Muhammad	-8969
▁Nintendo	-8970
▁November	-8971
▁Nowadays	-8972
▁Troubles	-8973
▁absolute	-8974
▁antidote	-8975
▁anywhere	-8976
▁arrested	-8977
▁audience	-8978
▁backpack	-8979
▁benefits	-8980
▁brighter	-8981
▁childish	-8982
▁classics	-8983
▁controls	-8984
▁creeping	-8985
▁critical	-8986
▁deserves	-8987
▁director	-8988
▁equipped	-8989
▁evidence	-8990
▁exercise	-8991
▁floating	-8992
▁forgiven	-8993
▁heritage	-8994
▁invented	-8995
▁laughter	-8996
▁listened	-8997
▁mattress	-8998
▁miracles	-8999
▁officers	-9000
▁partners	-9001
▁passport	-9002
▁positive	-9003
▁powerful	-9004
▁precious	-9005
▁prepared	-9006
▁produced	-9007
▁producer	-9008
▁reckless	-9009
▁rotation	-9010
▁sneakers	-9011
▁speakers	-9012
▁stumblin	-9013
▁survived	-9014
▁swimming	-9015
▁trenches	-9016
▁withdraw	-9017
▁Basically	-9018
▁Different	-9019
▁Emotional	-9020
▁Yesterday	-9021
▁baguettes	-9022
▁believing	-9023
▁bloodline	-9024
▁blueprint	-9025
▁challenge	-9026
▁cigarette	-9027
▁conceited	-9028
▁confirmed	-9029
▁connected	-9030
▁footsteps	-9031
▁freestyle	-9032
▁gentlemen	-9033
▁grapevine	-9034
▁hopefully	-9035
▁impressed	-9036
▁legendary	-9037
▁liberated	-9038
▁literally	-9039
▁magazines	-9040
▁narcotics	-9041
▁nightlife	-9042
▁perfectly	-9043
▁practicin	-9044
▁protected	-9045
▁psycholog	-9046
▁recording	-9047
▁slaughter	-9048
▁standards	-9049
▁terrified	-9050
Demonstrate	-9051
abracadabra	-9052
▁Antichrist	-9053
▁Complexion	-9054
▁Resentment	-9055
▁accountant	-9056
▁cigarettes	-9057
▁complainin	-9058
▁complexion	-9059
▁determined	-9060
▁directions	-9061
▁expression	-9062
▁incredible	-9063
▁introduced	-9064
▁mastermind	-9065
▁negativity	-9066
▁overlooked	-9067
▁perception	-9068
▁production	-9069
▁regardless	-9070
▁relentless	-9071
▁vulnerable	-9072
▁bittersweet	-9073
▁collarbones	-9074
▁description	-9075
▁differently	-9076
▁generations	-9077
▁scholarship	-9078
▁entertainment	-9079
▁misunderstood	-9080
▁accomplishments	-9081
"—	-9082
':	-9083
--	-9084
11	-9085
Cr	-9086
EL	-9087
Ew	-9088
HD	-9089
II	-9090
Mo	-9091
ND	-9092
OD	-9093
Sc	-9094
Sp	-9095
ae	-9096
cn	-9097
ek	-9098
vo	-9099
yx	-9100
’,	-9101
▁x	-9102
'),	-9103
'?)	-9104
Agh	-9105
Aha	-9106
Ann	-9107
Con	-9108
Did	-9109
Doo	-9110
ETA	-9111
Hee	-9112
Ice	-9113
LER	-9114
Lay	-9115
MAN	-9116
New	-9117
Son	-9118
Try	-9119
Two	-9120
Yep	-9121
agn	-9122
amy	-9123
ato	-9124
aur	-9125
aza	-9126
azy	-9127
bag	-9128
bon	-9129
bre	-9130
cis	-9131
cut	-9132
ela	-9133
ems	-9134
few	-9135
ffi	-9136
fol	-9137
gal	-9138
ggy	-9139
iac	-9140
ico	-9141
icy	-9142
ida	-9143
iji	-9144
isa	-9145
isy	-9146
iza	-9147
jan	-9148
lar	-9149
lle	-9150
mun	-9151
nox	-9152
oad	-9153
oca	-9154
ohh	-9155
oly	-9156
ora	-9157
osé	-9158
pew	-9159
ran	-9160
raq	-9161
rys	-9162
sac	-9163
she	-9164
sid	-9165
sta	-9166
tee	-9167
thy	-9168
tra	-9169
tsk	-9170
uas	-9171
urp	-9172
vas	-9173
who	-9174
win	-9175
woo	-9176
woy	-9177
yup	-9178
zes	-9179
zos	-9180
▁'7	-9181
▁15	-9182
▁2-	-9183
▁Ce	-9184
▁Di	-9185
▁Ed	-9186
▁Hy	-9187
▁Id	-9188
▁Ir	-9189
▁Nu	-9190
▁PG	-9191
▁ek	-9192
▁ju	-9193
▁os	-9194
▁tú	-9195
Boom	-9196
Drip	-9197
From	-9198
LLER	-9199
Pray	-9200
Save	-9201
Slim	-9202
Stay	-9203
Then	-9204
Will	-9205
akim	-9206
araz	-9207
arts	-9208
ases	-9209
asha	-9210
aved	-9211
avis	-9212
blem	-9213
byes	-9214
chea	-9215
cist	-9216
coat	-9217
cope	-9218
cuff	-9219
cuit	-9220
dens	-9221
dove	-9222
eeds	-9223
eens	-9224
eous	-9225
eros	-9226
esis	-9227
etch	-9228
ggin	-9229
gins	-9230
good	-9231
greg	-9232
gues	-9233
hale	-9234
hent	-9235
high	-9236
icer	-9237
ifts	-9238
ilos	-9239
ilyn	-9240
imed	-9241
inde	-9242
inin	-9243
iper	-9244
ipes	-9245
ippi	-9246
ipro	-9247
ipts	-9248
ivor	-9249
kids	-9250
kies	-9251
kill	-9252
lend	-9253
lier	-9254
lmet	-9255
love	-9256
mond	-9257
nast	-9258
oles	-9259
omet	-9260
onge	-9261
ongs	-9262
onia	-9263
ooth	-9264
osen	-9265
oses	-9266
ownt	-9267
pool	-9268
pril	-9269
rand	-9270
reek	-9271
reep	-9272
rell	-9273
ront	-9274
ruct	-9275
stal	-9276
stit	-9277
tale	-9278
thro	-9279
tone	-9280
turn	-9281
uire	-9282
ulla	-9283
undy	-9284
uter	-9285
vity	-9286
wide	-9287
yaan	-9288
yson	-9289
zzle	-9290
▁10,	-9291
▁50,	-9292
▁Aub	-9293
▁Aug	-9294
▁Bag	-9295
▁Bes	-9296
▁Boi	-9297
▁Brr	-9298
▁Cat	-9299
▁Cir	-9300
▁Cos	-9301
▁Coy	-9302
▁Cru	-9303
▁Cur	-9304
▁Eem	-9305
▁Fat	-9306
▁Fay	-9307
▁Fun	-9308
▁Gon	-9309
▁Hil	-9310
▁Jul	-9311
▁Lab	-9312
▁Lad	-9313
▁Luc	-9314
▁MEL	-9315
▁Nin	-9316
▁Non	-9317
▁OGs	-9318
▁Opp	-9319
▁Pam	-9320
▁Pee	-9321
▁Que	-9322
▁Rhy	-9323
▁Row	-9324
▁Rub	-9325
▁Sal	-9326
▁Saw	-9327
▁Shh	-9328
▁Sip	-9329
▁Tam	-9330
▁Tro	-9331
▁Uno	-9332
▁VIP	-9333
▁Wah	-9334
▁Wak	-9335
▁Yan	-9336
▁Yep	-9337
▁awe	-9338
▁bay	-9339
▁bin	-9340
▁bob	-9341
▁bub	-9342
▁bug	-9343
▁bul	-9344
▁dab	-9345
▁dap	-9346
▁deh	-9347
▁dim	-9348
▁doc	-9349
▁dop	-9350
▁fut	-9351
▁gal	-9352
▁gam	-9353
▁gap	-9354
▁ger	-9355
▁hyd	-9356
▁jog	-9357
▁jug	-9358
▁kis	-9359
▁lin	-9360
▁nit	-9361
▁pha	-9362
▁pum	-9363
▁san	-9364
▁sau	-9365
▁sma	-9366
▁sty	-9367
▁sue	-9368
▁swa	-9369
▁tek	-9370
▁tub	-9371
▁uns	-9372
▁unw	-9373
▁yea	-9374
Bring	-9375
Close	-9376
Daddy	-9377
Every	-9378
Facts	-9379
Gotta	-9380
Pussy	-9381
Seven	-9382
Which	-9383
World	-9384
Yeezy	-9385
abbit	-9386
aboos	-9387
acent	-9388
actus	-9389
aggot	-9390
allin	-9391
amine	-9392
balls	-9393
bbing	-9394
brook	-9395
ccess	-9396
chers	-9397
comin	-9398
cused	-9399
diddy	-9400
elids	-9401
eness	-9402
erson	-9403
essed	-9404
ested	-9405
eysoh	-9406
field	-9407
gends	-9408
gotta	-9409
harma	-9410
htray	-9411
icity	-9412
ictly	-9413
igate	-9414
immer	-9415
ising	-9416
itled	-9417
ivers	-9418
liest	-9419
model	-9420
naked	-9421
olume	-9422
oners	-9423
ookie	-9424
plain	-9425
raged	-9426
rayed	-9427
react	-9428
rooms	-9429
shirt	-9430
stone	-9431
tless	-9432
tling	-9433
ualty	-9434
uddle	-9435
ugger	-9436
uries	-9437
velop	-9438
venue	-9439
▁2015	-9440
▁ADHD	-9441
▁Audi	-9442
▁Bald	-9443
▁Baow	-9444
▁Bean	-9445
▁Bein	-9446
▁Bird	-9447
▁Bite	-9448
▁Boys	-9449
▁Buck	-9450
▁Bury	-9451
▁Caes	-9452
▁Cast	-9453
▁Cock	-9454
▁Coll	-9455
▁Conf	-9456
▁Cont	-9457
▁Cops	-9458
▁Cube	-9459
▁Deal	-9460
▁Dest	-9461
▁Dope	-9462
▁Fair	-9463
▁Ferg	-9464
▁Game	-9465
▁Gray	-9466
▁Happ	-9467
▁Hire	-9468
▁Hung	-9469
▁Jess	-9470
▁Jose	-9471
▁Kiss	-9472
▁Knew	-9473
▁Kool	-9474
▁Kung	-9475
▁Land	-9476
▁Liqu	-9477
▁Lupe	-9478
▁Mars	-9479
▁Name	-9480
▁Ness	-9481
▁Niko	-9482
▁Nine	-9483
▁Octo	-9484
▁Onyx	-9485
▁PETA	-9486
▁Pink	-9487
▁Ritz	-9488
▁Rush	-9489
▁Russ	-9490
▁Scar	-9491
▁Sche	-9492
▁Shar	-9493
▁Simp	-9494
▁Sway	-9495
▁Swed	-9496
▁Test	-9497
▁Thug	-9498
▁Tour	-9499
▁Vibe	-9500
▁Wash	-9501
▁Wile	-9502
▁Yell	-9503
▁anus	-9504
▁beer	-9505
▁bred	-9506
▁bwoy	-9507
▁cats	-9508
▁cens	-9509
▁coal	-9510
▁dawn	-9511
▁deaf	-9512
▁dump	-9513
▁ecst	-9514
▁egos	-9515
▁excl	-9516
▁flee	-9517
▁fork	-9518
▁fors	-9519
▁glit	-9520
▁gnat	-9521
▁hips	-9522
▁hump	-9523
▁hush	-9524
▁init	-9525
▁jobs	-9526
▁junk	-9527
▁leak	-9528
▁lesb	-9529
▁mano	-9530
▁meas	-9531
▁muse	-9532
▁nick	-9533
▁nuns	-9534
▁orig	-9535
▁pale	-9536
▁pear	-9537
▁peek	-9538
▁peer	-9539
▁pent	-9540
▁phot	-9541
▁pics	-9542
▁poin	-9543
▁rehe	-9544
▁sake	-9545
▁semi	-9546
▁sire	-9547
▁slay	-9548
▁slop	-9549
▁sons	-9550
▁spec	-9551
▁sped	-9552
▁stor	-9553
▁susp	-9554
▁tang	-9555
▁tast	-9556
▁tits	-9557
▁tore	-9558
▁toss	-9559
▁toug	-9560
▁vote	-9561
▁wick	-9562
▁wins	-9563
▁yawk	-9564
Listen	-9565
Season	-9566
Static	-9567
alized	-9568
amorph	-9569
arazzi	-9570
arents	-9571
asphem	-9572
better	-9573
broken	-9574
called	-9575
chubba	-9576
dammit	-9577
egrity	-9578
employ	-9579
enties	-9580
formed	-9581
iggers	-9582
indeer	-9583
istent	-9584
itable	-9585
mbered	-9586
mented	-9587
minded	-9588
olades	-9589
ording	-9590
ormous	-9591
riends	-9592
roduce	-9593
rybody	-9594
signed	-9595
talkin	-9596
ubborn	-9597
ulsive	-9598
ursday	-9599
ussein	-9600
vision	-9601
▁Actin	-9602
▁Again	-9603
▁April	-9604
▁Award	-9605
▁Being	-9606
▁Biggs	-9607
▁Billy	-9608
▁Chick	-9609
▁Cinde	-9610
▁Class	-9611
▁Clean	-9612
▁Clear	-9613
▁Creat	-9614
▁Cupid	-9615
▁Extra	-9616
▁Flyin	-9617
▁Gotti	-9618
▁Great	-9619
▁Grrah	-9620
▁Hotel	-9621
▁Jason	-9622
▁Killa	-9623
▁	-9624
e	-9625
t	-9626
o	-9627
a	-9628
n	-9629
i	-9630
h	-9631
s	-9632
r	-9633
l	-9634
u	-9635
d	-9636
y	-9637
m	-9638
,	-9639
'	-9640
w	-9641
g	-9642
c	-9643
k	-9644
f	-9645
I	-9646
p	-9647
b	-9648
v	-9649
(	-9650
)	-9651
T	-9652
A	-9653
-	-9654
S	-9655
Y	-9656
W	-9657
?	-9658
B	-9659
M	-9660
j	-9661
H	-9662
C	-9663
O	-9664
L	-9665
D	-9666
G	-9667
"	-9668
N	-9669
F	-9670
P	-9671
x	-9672
R	-9673
z	-9674
E	-9675
J	-9676
.	-9677
!	-9678
K	-9679
q	-9680
—	-9681
U	-9682
V	-9683
’	-9684
*	-9685
1	-9686
2	-9687
0	-9688
:	-9689
 	-9690
;	-9691
9	-9692
е	-9693
5	-9694
4	-9695
6	-9696
X	-9697
Q	-9698
​	-9699
é	-9700
Z	-9701
3	-9702
8	-9703
 	-9704
‘	-9705
–	-9706
7	-9707
…	-9708
&	-9709
”	-9710
á	-9711
/	-9712
ú	-9713
{	-9714
}	-9715
 	-9716
í	-9717
“	-9718
$	-9719
ó	-9720
è	-9721
¡	-9722
ö	-9723
à	-9724
î	-9725
ñ	-9726
°	-9727
â	-9728
%	-9729
Á	-9730
Ø	-9731
ç	-9732
ü	-9733
ā	-9734
ğ	-9735
Ő	-9736
―	-9737
⁠	-9738
─	-9739
